[PAD]
[EOS]
[UNK]
[CLS]
[SEP]
[MASK]
and
of
to
##,
the
in
with
is
a
no
for
was
on
has
or
her
He
at
No
his
She
mg
PO
-
##:
he
as
not
that
##s
The
had
she
1
patient
2
by
will
I
but
this
##;
have
be
are
MG
Dr.
been
an
from
pain
left
##)
chest
which
Record
history
date:
po
take
right
normal
well
any
without
There
His
L
##ing
TABLET
blood
x
also
5
##d
##ed
who
10
up
some
:
##e
pressure
last
20
3
after
Tablet(s)
s/p
Her
does
it
were
denies
1)
per
BP
w/
pain,
40
recent
##0
cardiac
%
if
see
##y
Patient
R
2.
evidence
We
Will
now
##-
This
given
when
QD
about
rate
one
artery
,
past
H
since
heart
##t
renal
3.
prior
over
30
him
##l
mild
1.
significant
acute
medical
today
exam
##ly
##2
weight
##7
In
lower
##s,
##5
##al
50
4
symptoms
we
Pt
showed
other
continue
On
back
very
noted
disease
##1
time
pt
reviewed
would
CT
clear
##4
seen
may
coronary
check
likely
days
good
follow
did
25
##6
##a
4.
Take
Physical
##8
OF
due
home
##3
##n
year
further
HISTORY:
##r
two
presents
chronic
shortness
negative
EKG
there
than
years
IV
more
then
all
admitted
Normal
Mr.
yo
me
h/o
low
abdominal
increased
A
diabetes
bilateral
reports
PHYSICAL
100
day
need
do
HEENT:
post
##9
##),
units
out
6
change
Lipitor
--
insulin
taking
edema
changes
##.
current
ED
Blood
BID
dose
)
bowel
HTN,
multiple
p.o.
Date/Time
regular
5.
##'s
old
Plasma
##c
only
new
WBC
Social
##S
Not
Chest
started
several
risk
Has
known
neck
##x
visit
note
elevated
weeks
status
Attending
you
HISTORY
DM
##H
325
small
As
qd
both
Family
##L
next
BUN
pulses
Diabetes
&#8211;
T
Medical
Denies
Review
Past
##ic
##es
soft,
male
test
get
carotid
75
discussed
before
DM,
K
##on
##er
surgery
Continue
##T
##E
care
able
Date
##A
increase
can
so
HCT
AND
possible
high
ASA
stress
months
man
P
##D
breath
upper
stable
GI
woman
week
81
currently
500
states
pulmonary
including
feels
Cardiac
severe
LAD
It
At
recently
CAD
patient's
having
History
medications
while
6.
should
PT
EXAMINATION:
0
stenosis
shows
##C
family
aspirin
Lab)
80
(Stat
most
loss
60
sinus
foot
daily,
##%
still
present
JVP
evaluation
done
disease,
********
##o
treated
during
SC
##R
MRN:
If
##ion
use
Physician
NEGATIVE
(
##g
appears
Lasix
HR
##M
found
PAST
15
plan
lung
few
f/u
arm
MEDICAL
HPI:
##ng
vascular
type
soft
peripheral
doing
S1
until
pulse
otherwise
diabetic
am
leg
admission
MCV
Start:
PRN
positive
underwent
three
followed
Please
down
daily
consistent
F
here
age
again
could
because
PLT
MI
day,
being
Absolute
stent
skin
full
.
review
SOCIAL
LDL
Dictated
revealed
distal
B
##m
physical
exercise
edema,
Neck:
NPH
lives
lisinopril
better
ago
secondary
problems
less
first
RBC
LE
nl
female
much
felt
ST
Internal
CA
##N
##us
times
bid
HGB
##te
work
venous
rhythm
died
cath
##p
these
decreased
Left
Hospital
aortic
##P
##"
smoking
regimen
neg
nausea,
extremity
RR
sensation
repeat
like
associated
EF
knee
TAB
Lisinopril
90
12
received
q
examination
MCH
8
setting
respiratory
off
developed
approximately
Clear
Abdomen
7
#
##ve
hypertension,
prn
previous
presented
once
night
femoral
difficulty
controlled
MCHC
q.d.,
glucose
follow-up
eye
episodes
although
Reason
Insulin
w
shoulder
scan
hx
MEDICATIONS:
?
##F
within
urine
improved
function
episode
control
consider
M.D.
drug
clinic
2.5
tenderness
continues
M
systolic
feeling
above
RDW
However,
200
slightly
morning
creatinine
Regular
O2
Neuro:
General
Check
##is
though
start
mellitus
intact
following
dyspnea
Skin:
D
Assessment
##le
Right
Renal
##h
proximal
chills,
Vital
Negative
FAMILY
CAD,
7.
rest
cancer
MRI
BS
Atenolol
head
diet
PRESENT
Lives
##G
sounds
says
graft
HTN
CO2
70
##in
ventricular
poor
diabetes,
bypass
auscultation
S2,
S1,
Last
2/2
treatment
ago,
0.5
##nt
##ne
where
swelling
report
related
onset
lesion
discomfort
course
Q
Neck
Name:
NA
##(H)
performed
notable
mid
atenolol
Dr
Dear
DD:
Admission
ALLERGIES:
(*)
rhythm,
range
increasing
eScription
cholesterol
RCA
Given
Coronary
(*),
moderate
electronically
active
Status:
A1c
quite
level
ischemia
failure
Medicine
MD
General:
DT:
CC:
Abdomen:
1000
1-2
vomiting,
twice
scheduled
month
inferior
catheterization
Lungs:
Chest:
CTA
COMPLAINT:
18
##k
include
going
Sodium
Lungs
Chronic
Calcium
Abd:
wife
saw
room
placed
cough,
cough
PE
None
ILLNESS:
CHF
C
tab
murmurs,
into
except
comes
abdomen
SOB
REVIEW
24
urinary
sent
notes
never
nausea
examined
call
baseline
Test
Medications
CXR
150
##w
##u
worsening
upon
sugars
qd,
needs
myocardial
large
joint
U
See
S2
Health
DV:
CABG
AM
##or
##mg
unable
think
therapy
systems
stroke
signs
reveals
every
20mg
time,
through
they
sleep
posterior
light
hip
free
ejection
cm
a.
##/
total
oral
medication
daughter
anterior
SOB,
Plavix
LABORATORY
CL
##I
quit
nontender,
mm
gentleman
early
Signed
##O
strength
minutes
lungs
hospital
give
fluid
fevers,
QHS
History:
CRE
2)
/
oriented
office
my
meds
lateral
Cr
CK
##(L)
##ation
w/o
valve
metformin
long
breath,
Since
Per
Aspirin
##Y
##en
walking
told
surgical
remains
mildly
fever,
extremities
XL
Soft,
Creatinine
CV:
8.
1.5
##U
studies
side
seeing
hemoglobin
focal
breast
bilaterally
weakness
palpitations,
feel
discharged
area
Extremities:
Date:
CP
40mg
10mg
##st
##ar
white
trace
s
labs
hypertension
diarrhea,
For
minimal
hours
help
exertional
count
Weight
visual
try
recurrent
murmur
four
Of
Heart
EMERGENCY
DIAGNOSIS:
AV
ASSESSMENT
vitamin
thyroid
sugar
prednisone
however,
fasting
continued
atrial
Toprol
Present
MR
HDL
Emergency
CAPSULE
(L),
##tion
ulcer
today,
stopped
return
recheck
pedal
ischemic
history,
Pager
PCP
P:
Other
LV
IN
Glucose
FS
##ous
worse
wall
toe
takes
six
resident's
mass
hand
echo
discuss
assess
another
air
To
HD
GLU
walk
recommended
palpable
occasional
non
make
goal
cervical
around
Peripheral
Mild
May
CP,
##B
##an
using
show
referred
pleasure
muscle
changes,
RRR,
##MG
##um
results
primary
masses
PRESENTING
Metformin
Heart:
##X
##3,
##0,
##ment
##ble
##b
troponin
orthopnea,
limited
ankle
TID
SYSTEMS:
RE:
PT-INR
PERRL,
DATE:
CN
9
##K
##4,
##a,
transferred
taken
similar
seems
popliteal
mg/dl
management
UNITS
ROS:
Lopressor
14
##se
your
x-ray
whether
what
went
nasal
grossly
erythema
emergency
diagnosed
Type
INR
##ce
unclear
note,
mother
monitor
made
hematocrit
diffuse
consult
by:
b.i.d.,
TBILI
PND,
OP
NO
Hct
E
By:
ASA,
##th
##ine
transplant
somewhat
hold
dysuria,
condition
Ext:
EOMI,
BR
5/5
10.
##W
motor
mental
infection
asked
Total
Skin
Potassium
Neurontin
Monos
Lymphs
Had
ESRD
DP
CVA
BP:
(including
##):
##tic
##ent
vein
poorly
pleural
discharge
VS:
Prilosec
Note
EOS
Creatine
Allergies:
72
300
100mg
(ACETYLSALICYLIC
##i
##f
##able
study
stool
obtain
lipid
know
dry
bleeding
bladder
alert,
TOP
T:
Kinase
II
HEENT
ETT
EKG:
Cont
Basos
All
08/29/62
##ting
##ry
initially
hyperlipidemia,
fracture
fraction
clubbing,
called
c/w
alcohol
V
Norvasc
Also
ACE
##V
##ted
##e,
##de
warm
volume
radiation
patient,
intermittent
evaluated
demonstrated
below
addition
PCP:
O
Ca
Bilirubin
9.
16
##AL
##s:
our
motion
complicated
cell
b.
SL
Pulse
Mother
Gen:
Father
Extremities
Exam
Chloride
Carotids
74
##--
##yo
##na
usual
second
rehab
regarding
prostate
previously
little
jugular
getting
began
With
PTT
Nexium
HCTZ
Department
Bilateral
##1,
##ia
yrs
temperature
supple,
hearing
factors
facial
each
days,
cyanosis,
X
RRR
NSR
Lantus
45
3)
12.5
##80
##y,
##ness
obese,
just
describes
colonoscopy
biopsy
along
PA
Mrs.
June
Home
Current
1/2
##S,
##6,
##2,
##d,
##ate
symmetric
resolved
re
numbness
noticed
neuropathy
lasix
dizziness,
contact
come
colon
c
N
Interval
Head
Clinic
5mg
08/01/92
(-)
##id
##ch
wave
suggest
returns
point
please
placement
iron
intact,
go
glyburide
enzymes
decrease
bone
agree
Thank
Na
ECG
Admit
65
#90
##7,
wt
well,
spinal
sitting
obese
nodule
later
kidney
infarction
however
flow
difficult
diagnosis
couple
complaints
clear,
abd
[
Pain
Mg
March
ER
Carotid
Cardiac:
68
22
##S:
##70
##50
##00
##ive
vessel
under
unchanged
stop
slight
might
legs
got
constipation,
complaining
calcium
between
appt
MS
LA
CK-MB
Attending:
67
##ol
##ma
##ck
##am
weakness,
throughout
testing
such
spine
size
same
rule
requiring
none
loss,
includes
fever
echocardiogram
eating
despite
angioplasty
anemia
alert
Wt
TP
Poly
NT,
Magnesium
January
Cholesterol
A/P:
70/30
11
used
too
tabs
sliding
reactive
presenting
jaw
involving
health
followup
even
bruits,
arterial
Superstat
Result
MIBI
Hx
December
35
07/02/88
##NE
service
sc
routine
potassium
peak
masses,
many
improvement
gets
gait
complains
c/o
aspirin,
advised
PLAN:
Neurology
Metoprolol
Full
Consult
An
ALT/SGPT
84
73
25mg
0.4
(5MG
##on,
wound
vision
took
son
relieved
pleasant
hospitalization
flu
exertion
examination,
diarrhea
\u\u\u\u\u\u\u\u\u\u\u\u\u\u\u\u\u\u\u\u\u\u\u\u\u\u\u\u\u\u\u\u\u\u\u
TTE
Surgery
S/P
ED,
DVT
D:
Currently
Coumadin
62
600
56
48
0.3
##90
##/C
##'
##nce
us
touch
tests
starting
sensory
saturation
persistent
pack
keep
issues
greater
extensive
exam,
either
d/c
congestive
complete
clinical
carotids
cannot
came
apparently
amount
activity
Vascular
Supple,
ROS
Pulmonary
NAD,
February
Does
DEPT
DATA:
Colace
64
50mg
##v
##ter
##er,
syndrome
scale
procedure
part
p/w
med
lost
imaging
how
finger
findings
discharge):
d
assessment
apparent
add
Vitamin
Medications:
DISPOSITION
Cor
69
53
42
400
27
11.
#1
##J
##ER
##9,
##8,
##30
##(
##ro
##re
##ll
##ing,
y/o
thought
schedule
rashes,
rash
radiating
put
progressive
nitroglycerin
neuro
liver
least
heparin
fine
exam:
equal
dialysis
bed
apical
addition,
Zestril
VISIT
Urine
November
July
Glucophage
G
EDVISIT
Discussed
Cardiology
COPD
BLOOD
AST/SGOT
76
58
2/6
(20MG
##ty
##n,
##ity
tobacco
tissue
sternal
status:
stage
showing
short
set
seizure
record
potential
patent
obesity
o
movements
mitral
mg.
lab
great
dyspnea,
directed
cold
brain
benign
Well
SH:
RA
PHOS
One
New
Labs
Hypo
GI:
FINAL
Chief
Cardiovascular
Asa
ALKP
98
77
4)
29
20,
17
100%
06/12/2072
0.8
(H)
##60
##to
##r,
workup
sounds,
repair
palpitations
oxygen
insufficiency
initial
husband
father
depression
bilaterally,
appointment
angina
Thyroid
Simvastatin
RV
Protein
Plan
Phosphorus
Is
Follow
Cor:
After
87
66
55
54
32
28
21
12.
0.2
-Extremities:
(ATORVASTATIN)
(40MG
##LE
##&#8217;s
##ir
##ge
##ant
works
working
trying
symptoms,
reflux
non-tender,
metoprolol
hernia
headache,
food
fatigue
evaluate
esophageal
documented
degree
checked
brought
appearance
additional
Tylenol
S/p
Pap
Page
PVD
PSA
ON
NEG
LAD,
Impression:
INH
ID
H/O
FH:
Document
Code
Care
Ativan
ALB
A1C
89
78
125
-Chest:
-Cardiac:
-Abdomen:
(L)
&gt;
##.5
###
##rs
##nd
##la
yesterday
via
treat
therefore
remained
q.
problem
open
obtained
normal,
lipids
lesions
injury
included
fall
especially
cultures
crackles
admit
admission,
abnormal
TWI
NECK:
Do
Diff
DM:
CCU
;
250
18,
14.
120
1.1
----
"
##12
##ow
##ot
supple
subsequently
speech
said
radial
r/o
possibly
order
nonspecific
interviewed
improve
end
encouraged
dependent
cause
calf
borderline
block
benefit
axis
UA
QPM
Positive
PMH
PE:
Most
MD,
IMPRESSION:
Albuterol
ACID)
AC
23
1.6
07/05/77
-Pulse:
-Neck:
-BP:
(4.5-11.0)
(3.4-4.8)
##no
##mm
##da
##cal
##ary
week,
tid
them
sweats,
stenting
simvastatin
rubs
response
resection
p
outside
near
murmur,
mcg
living
groin
gain
feet
dysfunction
drink
details
coumadin
confirmed
complaint
compared
became
aspect
arrival
Status
Smoking
S
Range
Name
NS
MEDICINE
Low
II-XII
FH
Celexa
CPK
BS,
98%
82
33
2-3
(no
(H),
%EOS
##IN
##97
##62
##-year-old
##ut
##ss
##rt
##me
##ld
##ght
##at
want
vomiting
sx
sure
site
rubs,
recommend
questions
lopressor
late
la
hypertensive
gastric
fairly
chloride
children
breathing
Would
Refills:3
RLE
QAM
Pt.
PR
Neuro
CV
Breast
April
@
88
79
16,
13
(80-100)
(8-25)
(135-145)
(100-108)
%MONO
##ra
##it
##il
##et
##ers
##ated
waves
toes
replacement
regular,
pneumonia
occasionally
movement
lose
longer
lobe
grade
general
elevation
ear
drinks
doses
confirm
changed
avoid
Selected
RTC
Patient:
PMI
Now
HA
Good
Glyburide
Exam:
ED:
CXR:
CHIEF
Admission:
ATENOLOL
97
71
59
34
*
(P
%NEUT
##TE
##ST
##ze
##ral
##one
##ns
##ial
##ac
y.o.
ultrasound
suggested
sudden
sodium
reflexes
rectal
ratio
probably
perfusion
pending
min
leads
intervention
inguinal
guaiac
furosemide
diminished
diastolic
depression,
cc:
bid,
Was
TSH
TO
THE
Surgical
September
S3
NPO
Musculoskeletal:
M.D.,
Isoenzymes
INTERNAL
Heparin
HTN:
EVALUATION:
Capsule(s)
CBC
BEFORE
ADMIT
ABD:
500mg
46
36
3.5
3,
26
19
140
1.0
&
##INE
##78
##5,
##25
##z
##ue
##tis
##ds
##do
vs
veins
swelling,
suggestive
sub
sore
segment
sat
productive
occlusion
occluded
obstructive
intake
hypercholesterolemia,
floor
fatigue,
experienced
excellent
data
cyanosis
culture
concerning
completely
When
Team
Rectal
QID
Prior
Percocet
Hgb
Flags
Description
Cozaar
Cath
Carbon
Alcohol
Albumin
Abd
85
63
49
15.
02/02/79
0.1
(10MG
##OR
##ON
##E,
##CA
##81
##11
##'s,
##ver
##ur
##pro
##ly,
##ls
##ke
##itis
##ist
usually
tachycardia
stenosis,
stay
stasis
refer
records
read
question
pre
particularly
outpatient
now,
non-
nerves
lymph
lumbar
injection
en
discussion
detail
cord
certainly
causes
added
W
UA-WBC
They
Recent
RENDERED/COURSE
PM
PET
Over
OR
LISINOPRIL
Hypertension
GLOB
EGFR
Dioxide
Consider
Center
COPD,
CHF,
CBC,
BM
61
40MG
17.
10MG
1.3
1.2
(31.0-37.0)
(26.0-34.0)
(23.0-31.9)
%BASO
##RA
##95
##sed
##pe
walks
vs.
visit,
thickening
tablet
syncope,
summary,
subsequent
state
send
returned
reported
prescription
polyp
neurologic
mmol/L
mg,
main
laboratory
issue
hour
heavy
half
frequency
five
fibrillation
fevers
face
dx
de
cont
clubbing
cardiovascular
bp
arrest
appropriate
appearing
anicteric,
Weight:
THERAPY
T-wave
Start
Sinus
Ro
Report
QTY:90
October
Never
NEURO:
Le
ID:
Hold
GERD,
County
Co
COURSE:
C.
Acid
Accession#
5MG
52
51
39
3.7
13.
1,
0.6
0.25
-General:
(T
(A
(11.5-14.5)
&nbsp;
%LYMPH
##]
##EN
##65
##40
##15
##ular
##tal
##ta
##sis
##man
##lo
##ide
##g,
years,
wheezes,
water
warm,
trouble
tried
transfer
tolerate
thyromegaly,
thigh
tenderness,
stated
respirations
relatively
reg
rate:
protein
overall
metastatic
membranes
lack
internal
infarct
frequent
drop
drinking
dilated
diagnostic
deep
constipation
concerned
concern
claudication
circumflex
central
c.
bleed
beta
Respiratory:
Reports
Protonix
NP
My
MO
Jan
Intern
HbA1c
Extr:
Diabetic
Changes
99%
86
83
75mg
5)
44
4.3
4.2
3-4
11/1
(a
(C
#30
##IC
##92
##74
##10
##year-old
##t,
##ory
##op
##ful
##der
##ad
vertebral
undergo
u
transient
suspect
stents
social
reveal
referral
progression
profile
proceed
possibility
participate
obvious
neurological
needed
memory
lot
looks
line
lbs
generalized
former
fact
exacerbation
described
denied
demonstrates
complex
cardiology
body
arthritis
anxiety
angiography
and/or
allowing
acid
Xavier
Urea
Unit
These
Respiratory
Nora
Non
NC/AT,
Method
MRA
Iron
Hcl
GU:
EXT:
EXAM:
DOE,
DBILI
Cardiovascular:
BB
AS
99
800
50MG
(8.5-10.5)
(70-110)
&nbsp
##Q
##LL
##ED
##AN
##20
##use
##ti
##o,
##logy
##ies
##ess
##el
##cy
##cm
##cc
##as
##ally
versus
uses
unusual
tibial
symptomatic
resolution
presentation
occ
obstruction
nocturnal
marked
interstitial
insulin,
importance
hyperlipidemia
hospitalized
eat
drainage
disc
diaphoresis,
department
cut
clinically
become
based
appear
Zocor
UA-PH
UA-GLUC
Temperature
Te
T2
S3,
QTY:30
Prednisone
Otherwise
Nitrogen
Laboratory
Humulin
Globulin
EtOH
Echo
Be
BNP
BG
B12
Abdominal
APPLICATION
AF
5th
57
325mg
3.9
0.9
0.7
(INSULIN
&lt;
#3
##RI
##RE
##CE
##7:
##75
##67
##63
##42
##06
##/5
##s/
##pt
##po
##mp
##ci
written
worked
this,
spent
sided
run
rub
retired
represent
red
plavix
plans
panel
pancreatic
nurse
number
nodules
murmurs
lymphadenopathy
heel
generally
gave
failure,
eval
etiology
epigastric
drip
discharge,
diagonal
close
ca
annual
albuterol
UA-BLD
Trace
Temp
Stool
Still
SVG
Q6H
Pupils
PNA
Novolog
NSR,
MICRO
MI,
METHOD
II,
Hx:
GERD
Extrem
DO
DEPARTMENT
AL
95%
4th
31
2L
16.
(150-350)
&amp;
&#224;
##D,
##76
##35
##100
##%,
##ton
##rol
##mo
##ile
wheezing,
way
tract
throat
sputum
source
sister
sick
shot
sharp
se
scar
ro
relief
rash,
quadrant
prolonged
pressures
physician
partial
pager
orthopnea
numbness,
mouth
medications,
major
lymphadenopathy,
lying
lipitor
lesions,
inter
home,
hepatitis
hemodynamically
fistula
failed
exertion,
evening
diffusely
degenerative
cycle
concerns
c/b
bilat
believe
aware
awake
available
appetite
angiogram
actually
Visit:
UE
Tobacco:
Soft
Sincerely
STE
STD
SBP
Post
Oropharynx
NOT
NL
Mo
Mid
Mar
Influenza
HS
GEN:
ETOH
DR
CPAP
Ab
APTT
81MG
500MG
43
38
-Skin:
(ASPIRIN
(1)
(0.6-1.5)
##US
##SE
##OP
##LY
##/s
##val
##ts
##ther
##sh
##os
##ons
##ms
##ie
##he
##es,
##ence
##alo
yr
w/u
tolerated
tingling
thinks
tablets
t
standing
staff
split
sl
reduced
pt.
prominent
prescribed
percussion
pattern
past,
palpation
obesity,
nontender
night,
nature
mucous
mostly
months,
lightheadedness,
levels
lb
know,
involved
higher
hepatosplenomegaly
hematuria,
gradually
form
external
event
depressed
color
bruits
bring
black
best
axillary
attempt
areas
antibiotics
anti-
aneurysm
already
aggressive
UTI
Troponin-T
Transaminase-SGOT
Today
Sat
SKIN:
Repeat
Quin
Q4H
OSH
Neuts
Neurologic:
Nathan
Motor
Monitor
Major
MCG
Lo
L,
JVD
Imdur
III,
HCL
H/o
Guaiac
Fe
EtOH:
Elevated
EMS
Cranial
Colonoscopy
Bi
Alkaline
Acute
81mg
7.5
4.1
3.0
210
20MG
12/13/11
110
(M
(40-70)
(2)
(2
##AR
##98
##88
##/S
##/P
##.,
##mi
##m,
##led
##l,
##ff
##ct
##and
##ab
year-old
vaginal
vaccine
unremarkable
tolerance
suspicious
superficial
steroid
sometimes
sign
sense
resume
required
require
rather
rashes
rales,
pulses,
pleasant,
perhaps
own
oropharynx
neuropathy,
monitoring
moist
microalbumin
medial
list
lisinopril,
ischemia,
future
eyes
earlier
double
dizziness
disorder
date
control,
contrast
complications
common
clearly
cc
candidate
cancer,
bulk
branch
bit
basal
arrived
apply
aorta
Y
Vitals:
UA-NIT
Triglycerides
Transaminase-SGPT
T.
Small
Sleep
Significant
SURGICAL
SODIUM
Rest
Re
RR:
PATIENT:
NEGATIVE,
NAS
Macrocytes
MEDICATIONS
MCA
Lab
High
Furosemide
During
BPG
Avandia
August
Alert,
Alert
AT
97%
850
5.0
4.4
37
20MG,
2,
(in
(50MG
##NT
##58
##03
##.0
##tive
##son,
##ort
##oma
##nal
##ling
##ka
##ene
##dia
##cin
##bo
yet
vision,
strong
slow
significantly
scans
ruled
retinopathy
residual
removed
redness
pupils
presumed
pounds
polyuria,
point,
perform
mod
medicine
meals
laser
i
hydrochlorothiazide
heat
headache
extending
ext
evaluation,
enlarged
elderly
e
discrete
deficiency
dec
cor
compression
completed
awake,
arms
anemia,
always
alone
YO
White
U/A
TIA
SR
Re:
Phosphatase
Pa
PVD,
PRO
Omeprazole
Nursing
Negative,
Microcytes
Michael
LLE
HgbA1c
HR:
H.
Gastrointestinal:
GU
Follow-up
FOR
Dec
DOB:
DAILY
Cl
Change
Aniso
A.
91
80mg
4.0
3.8
3.6
130
-weight:
(8
(7
(22-44)
##VA
##TA
##T,
##OT
##OL
##MI
##MA
##CH
##AM
##AD
##AC
##96
##91
##82
##64
##49
##33
##24
##/p
##/L
##/6
##-M
##wood
##ub
##tri
##ped
##king
##est
##ell
un
tube
thoracic
therapy,
their
syncope
substernal
smoking,
single
salt
result
release
recently,
rebound
rales
protocol
prostatic
probable
polydipsia,
plantar
place
pitting
period
pedis
orthostatic
op
occurred
nl,
morphine
melena,
markedly
managed
mammogram
maintenance
maintain
m
lupus
look
lantus
iv
its
illness
illicit
hypoglycemic
gangrene
g
frequently
flat
erythema,
drive
diaphoresis
developed,
defect
consulted
consideration
co
closely
cellulitis
catheter
burning
brother
beats
baseline,
b/l,
atenolol,
asymptomatic
aspiration
arteries
arm,
apex
angio
across
ac
XII
UA-KET
Tri
TRIG
TNG
Synthroid
Seen
Return
Release
PTCA
Number:
ND,
Memorial
Me
Lu
Li
J
IVF
INSULIN
IMPRESSION
HYPO
End:
Ecotrin
Direct
Decreased
Continues
CC
CABG,
Benign
Allergies
Al
ANISO
ANEUT
ALYMP
93
92
90%
6)
50%
30mg
25MG
2097/04/30
2.2
137
103
102
1%
0-2
(I
(500MG
(2.6-4.5)
(1.4-2.0)
(0-8)
##TI
##TH
##TER
##OM
##ME
##L)
##H)
##DE
##A,
##68
##59
##32
##27
##21
##/o
##/A
##/2
##-8
##-4
##);
##'d
##&gt;
##ugh
##tt
##ten
##sa
##ru
##ps
##ple
##pa
##ight
##hy
##ft
##ew
x1
work-up
weeks,
vertigo,
use,
unit
understands
ulcers
trial
system
surgery,
support
sulfate
stable,
smoker
slowly
seem
screening
risks
resident
repeated
really
r
process
primarily
post-op
plus
platelets
plaque
normally
name
multi
mood
midline
markers
let
interval
indicated
incision
improving
iliac
hematoma
held
heard
hard
find
explained
electrocardiogram
effusion
effects
disposition
discontinued
consultation
chart
breakfast
ankles
agents
adenosine
adenopathy
accessory
absent
abnormalities
Wa
VITAL
UA-Protein
Strength
Stable
St
Service
Reglan
QRS
Prozac
Previous
PEND
Ordonez
Normocephalic,
NTG
Month(s)
ME
Liver
Likely
Hyperlipidemia
Ho
Go
Further
Followed
Feels
F/U
Extended
En
EC
Dilantin
Date/Time:
DISPOSITION:
DIFFERENTIAL
Clinical
CVS:
CO
CHEST:
Bu
Bruce
Bone
ANION
AMONS
40%
27.
26.
138
1.7
02/04/92
-C
(FUROSEMIDE)
(41.0-53.0)
(4-11)
(3)
(0-3)
#2
##Z
##SA
##NS
##LA
##ID
##GE
##89
##08
##/a
##-t
##-3
##ville
##ure
##tes
##son
##rie
##q
##per
##lar
##ions
##dl
##day
##ax
x3,
x2
ventricle
tightness
therapies
th/cmm
supraclavicular
studies,
smoked
sclera
remote
reduce
reasonable
rapid
ran
ra
qhs,
program
problems,
position
platelet
pill
pelvic
patch
ortho
often
occur
nutrition
nodes
node
negative,
meal
married
lasted
instructed
incontinence
impulse
immediately
hypotension
hypoglycemia
house
hi
healed
hands
gram
forward
eats
drawn
distant
dietary
di
determine
decision
decided
cream
concur
comfortable
chem
bleeding,
bibasilar
axis,
appeared
angina,
agreed
XRT
Vit
Vaccine
Upon
URI
UA-SPGR
UA-PROT
Troponin-I
Troponin
State
Saw
SaO2
SFA
SA
Retired
ROM
REQUEST
Quit
Po
Plan:
Nl
Needs
Ne
NAME:
Moderate
Microalbumin
Lasix,
LI
LFTs
Known
Ja
IV,
Humalog
Hospital,
HB
HA,
GENERAL
F/u
F.
Diovan
Did
DM2,
DESIRABLE:
Community
Codeine
Can
CREAM
CHOL
Briefly,
Bo
Auto
All:
Acid)
ALL:
6.0
5.5
3/2
211
2.9
1st
190
134
10,
1.9
06/14/78
06/1
(S
(MULTIVITAMINS)
(F
#60
##RO
##ND
##IL
##HA
##CI
##AT
##52
##37
##3)
##22
##09
##/H
##.4
##-2
##zed
##so
##ria
##rd
##lu
##les
##lan
##ion,
##gram
##ged
##ey
##em
##ef
##ea
##be
##ance
year,
worsened
wheezes
wants
vital
viral
values
v
tumor
trauma
trans
tongue
titrate
terms
switch
stairs
specific
soon
situation
signed
rx
remain
recall
reaction:
qpm
qhs
qam
psych
prevent
pressure,
pre-
pounds,
particular
nocturia
nerve
move
morbid
minute
mentioned
mellitus,
lasting
knows
intracranial
intolerance
hs
gallops,
gained
flat,
fell
exposure
estimated
embolic
dry,
drugs
dressing
dominant
distribution
discomfort,
difficulties
dementia
cuff
con
compliant
clicks
chemotherapy
change,
case
car
bu
bi
assist
allergy
al
adjust
]
William
WEIGHT
VI
US
TROP-I
Systems:
S:
S4,
S4
QD,
Premarin
Pneumovax
PUFF
PRESSURE
NT
NSTEMI
NC
Mammogram
MR#:
METFORMIN
MACRO
Lung
Lower
IS
III
HUMAN
GA
Fosamax
Extremity
ESR
EKG,
Doppler
Detail
DM2
Culture
Complete
Celebrex
CRI
BI
B12,
B.
Atrial
Approved
Amlodipine
AEOSN
AD
ABDOMEN:
ABASOP
70%
7.3
6.5
4.5
3.2
24.
2.6
19,
160
139
12/17/2080
12,
11,
10/0
1.4
-Neuro:
-HEENT:
(METOPROLOL
(L
(4
#4
##The
##TION
##PO
##OC
##O2
##NG
##N,
##L,
##IS
##93
##9-
##8-
##69
##5-
##1-
##01
##000
##.3
##-a
##ys
##yn
##wn
##ul
##ud
##ua
##su
##ster
##rm
##li
##less
##land
##ice
##ex
##eg
##dy
##bro
##ay
##art
##ap
{
watch
ureteral
unstable
unlikely
top
third
tender,
tender
taper
speaking
signal
seconds
scleral
round
recurrence
reading
pulm
puffs
presence
paroxysmal
ostial
origin
middle
mid-
life
lesion,
labetalol
joints
intermittently
hypo
hope
himself
hesitate
hemodialysis
healing
headaches,
gra
gallops
flex
fe
equal,
documentation
doctor
dissection
dia
depressions
counseling
component
cholesterol,
cataract
cardiologist
bolus
asthma
arrange
appearing,
anteroseptal
accompanied
absence
above,
WITH
Very
Vascular:
Ur
UA-COLOR
Time
Tegretol
TR
Stage
Shoulder
Sensation
SODIUM)
SMA
Recently
Psych
Provider
Prostate
Pe
PULSE
PTH
Otherwise,
Obese,
OK
Nitroglycerin
N.
Musc
MR#
MMM,
MA
LVH
LP
L.
Ke
Ka
Joshi
Isoenz
Ir
ICA
Heent
Hctz
HE
HCL)
Glipizide
Ga
FL
FE
EW
EGD
Du
Dir:
De
DM-
Congestive
Con
Chem
CVA,
Because
Back
Active
Able
AP
ADMISSION
96
95
9.0
80%
6/1
50MG,
47
41
40MG,
4-5
37.5
325MG
23.
22.
214
2094
2/1
2.7
1:
12/0
104
101
100MG
0.01
(on
(9
(1MG
(13.5-17.5)
(1.8-7.7)
(1.0-4.8)
(1
##UR
##SS
##R,
##No
##NO
##MCG
##IA
##ES
##CT
##3-
##19
##16
##04
##/c
##/D
##/3
##.6
##-6
##-5
##zole
##und
##time
##ring
##rin
##osis
##ole
##oid
##n't
##mia
##lla
##ian
##erol
##eri
##eo
##ee
##ed,
##ect
##den
##ak
##age
whom
wheezing
vessels
thyromegaly
therapeutic
tendon
ten
temp
target
t.i.d.,
systemic
swollen
statin
sta
spray
smoke
smear
serum
septal
saphenous
resident,
regularly
regard
recommendations
receive
rec
rare
qd;
pursue
prox
phone
peri
pa
output
options
opacity
omeprazole
nose
neck,
na
micro
met
low-
log
lipids,
lightheadedness
l
isosorbide
irregular
inh
information
index
incontinence,
images
hydrochloride
hot
green
global
fully
fem-pop
far
factor
extra
excessive
exc
drain
dizzy
distress
develop
daughter,
dark
cranial
considered
compliance
colostomy
chol
checks
cerebellar
care,
capacity
bruit
brown
big
benefits
bed,
base
attempted
atorvastatin
anything
ambulate
albumin
adenoma
access
Vincent
VS
Urinary
Un
UA-UROBI
UA-BILI
Ti
Stress
Smoking:
Sister
Se
SP
SDU
Results
RH
RESULT
RE
Psychiatric:
Pre
Pravachol
Physician:
Paul
PERRL
Os
OU
OM
Ni
Meds
LIMA
LEFT
KE
Here
Hemoglobin
HSM,
Gen
GENERAL:
Flu
Flomax
F,
Extraocular
ECASA
Doing
Disease
Differential
Diabetes,
Density
DOE
DIFFR
Condition
Case
CR
BID,
BB,
Ar
Advair
AICD
ACID
96%
94
7/
6.4
5000
36.
300mg
3.3
3.1
2nd
29.
2092
2.4
2.3
180
14,
13,
07/13/95
(R
(D
(4.50-5.90)
(100MG
'
##Y,
##TO
##SO
##SH
##PRO
##PH
##NA
##KE
##EL
##CC
##85
##84
##55
##54
##45
##41
##34
##2-
##17
##/day
##/M
##ville,
##view
##tin
##stic
##sp
##sion
##ron
##rk
##red
##pp
##ping
##ok
##ni
##nda
##men
##mal
##lt
##lly
##ized
##ita
##hi
##cu
##bi
##ating
##ath
##ana
##ain
wnl
wide
well-appearing
unless
unknown
tx
tolerating
thus
thin
team
ta
syndrome,
suffered
substance
subcutaneous
study,
stroke,
stool,
speech,
sp
sleeping
sigmoid
seizures,
segmental
sees
seemed
running
restart
region
re:
re-
pm
ongoing
noted,
nor
non-tender
nodules,
neurology
musculoskeletal
mucosa
morning,
moderately
mo
male,
magnesium
lobectomy
limit
lead
flexion
fixed
essentially
enough
education
easy
dorsalis
distress,
dinner
different
deceased
continuing
context
confusion
clean
chills
chart,
cards
bradycardia
bo
b.i.d.
attention
atherosclerotic
anticoagulation
anti
amputation
allergies
adrenal
according
ab
Works
VIT
Units
TROP-T
TMA
TB
Spinal
ST-T
SIGNS:
S1S2,
S1S2
RF
Problem
Pleasant
Peter
Patricia
PMH:
PERRLA,
PCI
OA
O:
Nov
Nor
Mvi
Multiple
Married
ML
Lymph
Looks
Lipase
Levothyroxine
Levaquin
LVEF
LO
LAB
JVD,
Initial
Index
Impression
Illness:
IC
I,
HGBA1C
HCV
HBA1C
H,
GM
GE
Fi
Father:
FEN:
Ext
Er
Electrocardiogram
Da
DE
D1
D/C
Cypher
Col
Code:
CTAB
COR:
CE
Bowel
Back:
BMI
Anemia
Amylase
Admitted
Ad
According
AM,
8-25
70-110
60mg
60%
500MG,
4.5-11.0
3rd
31.
3.4-4.8
3.4
24,
220
213
21,
2.5mg
1mm
15,
135-145
112
105
100-108
07/2
(h
(81MG
(20
&#8220;
##VI
##MG,
##GH
##G,
##BP
##86
##79
##7/
##66
##61
##57
##36
##29
##28
##23
##07
##0-
##/T
##/N
##/7
##.1
##-9
##zi
##zation
##yr
##yl
##wa
##vo
##vin
##vel
##ual
##tra
##sk
##sc
##s;
##ren
##qui
##pi
##ord
##ome
##ology
##ola
##od
##ob
##o-
##lic
##ki
##ite
##her
##go
##gen
##emia
##ca
##au
##act
wk
wanted
tricuspid
tracing
tomorrow
tobacco,
tinnitus,
tight
test,
swallowing,
superior
sooner
sexual
sero
right,
reversible
regimen,
qam,
pulsatile
pro
post-
physiologic
pap
organomegaly
nursing
nourished,
nifedipine
needle
necessary
n
muscles
moving
minor
metformin,
metabolic
married,
making
makes
ma
lid
infection,
htn,
htn
hit
hematuria
hct
ha
gone
glipizide
g/dl
forearm
fluids
films
fields
fat
extended
excision
er
energy
elevations
dr
dosing
doesn't
diet,
detailed
declined
daughters
cover
consent
confused
coming
coffee
children,
checking
cessation
cerebral
celiac
bs
basis
awoke
atelectasis
artery,
appetite,
amlodipine
amiodarone
almost
airway
adding
abx
USOH
UGI
UA-APP
Sulfa
Source:
Son
Smear
Shortness
Screen
SS
SI
S.
Rx
Ru
RUQ
ROM,
RN
PRIMARY
PND
Op
Office
Neurological:
Narrative
Meds:
Ma
MS:
MR,
Ly
LUE
LN
Knee
Ishida
Increase
Illicits:
ID/CC:
Hypertension:
Har
Glucotrol
Fundi
Fasting
Exercise:
Examination:
Enteric
Endocrine:
ETOH:
ENTERIC
Drug
Diet
Clo
Ci
CURRENT
COUNTY
COMMENT:
Brother
Bri
Bactrim
Abnormal
AST
AMY
ALT
ACT
A:
9.2
8.9
7.8
7.1
7)
4/2
4.7
37.
34.
30,
30%
2095
200mg
2.0
2-12
2-
1mg
19.
18.
17,
16:04
145
136
133
131
100MG,
1/150
09/2
06/2
(per
(p
(last
(LISINOPRIL)
(HYDROCHLOROTHIAZIDE)
(AMLODIPINE)
(6
(5
(0.1-0.3)
(0.0-0.3)
(*#)
##VE
##RT
##RR
##OS
##MO
##LO
##IT
##H,
##DI
##CV
##C,
##BU
##ATE
##51
##4)
##13
##/in
##.7
##-s
##-related
##-re
##-c
##za
##z,
##vit
##uc
##stin
##ssi
##ris
##ric
##ote
##oo
##omy
##nta
##nol
##min
##lin
##lb
##ish
##ior
##ig
##hou
##ha
##gs
##eu
##ep
##ening
##ectomy
##ding
##dine
##con
##col
##co
##ative
##ase
underlying
ulnar
ulcer,
tired
throughout,
thrombosis
thrombocytosis
thrombectomy
tested
territory
surface
step
stent,
spectral
space
something
screen
resting
regurgitation
reach
q.d.
pump
provide
prefer
prednisone,
physician,
pe
pain/
p.r.n.
overweight
osteoarthritis
originally
nutritionist
myself
motion,
mos
mechanical
mal
maintained
lymphoma
limb
knees
intra
intervals,
interested
intensity
informed
influenza
hyper
hydralazine
holding
herself
happy
h
frequency,
fluent
flank
fibrosis
fair
erythematous
errors
epi
endoscopy
dysphagia,
diuretic
density
collection
changing
caused
careful
cane
buttock
bundle
bruising,
br
blurry
bedtime
bc
away
attributed
ask
ar
apnea,
anxious
adequate
[1]
Zyprexa
Ze
Zantac
Yerger
Yellow
X-ray
Wt:
While
WGH
Van
VITALS:
Ul
UAS-WBC
UAS-RBC
Toprol-XL
Toes
Today,
Time:
Temp:
TSH,
Symptoms
Sulfate
Succinate
Su
Started
Sensory
Senior
STATUS
SE
Rule
Reviewed
Refills:1
RVSP
Pulses
Pro
Preop
Pi
PMHx
PH
PEND,
PC
PAC
Occ
OFFICE
Nystatin
Nifedipine
Nicholas
Neil
Motor:
Mother:
Main
MB
Lopressor,
Living
La
LUNGS:
LT
LLQ
Je
Inhaler
Hypertensive
Human
Hi
Hepatitis
HD,
HCTZ,
Gastroesophageal
Gait
Former
Foot
Flonase
FU
El
Disposition
Depression
DI
DA
CM
CARE
Basal
Appears
Am
Admitting
Acetylsalicylic
AVF
96.
80-100
8.5-10.5
7,
5.3
4.6
4-11
28,
24H
212
21.
2079
2.6-4.5
2.1
150-350
132
118
11.5-14.5
10:32
109
107
1/1
1.4-2.0
07/13/77
05
01/20/79
01/2
00
0.6-1.5
0.03
-height:
-P
-BMI:
(di
(O
(E
(B
(?
(6.0-8.3)
(3.3-5.0)
(12.0-16.0)
(10
#:
#5
##PE
##OUS
##NI
##ING
##F,
##BI
##83
##77
##207
##200
##1.
##1)
##0)
##/n
##/e
##/R
##.8
##-A
##-1
##ving
##va
##up
##uce
##tho
##tain
##spo
##si
##ses
##ros
##rit
##ont
##ong
##ness,
##ner
##ne,
##mycin
##line
##kin
##j
##ix
##ium
##int
##inal
##ill
##ical
##ica
##ht
##ho
##emic
##ec
##ear
##di
##dge
##cot
##com
##clo
##cet
##cer
##bin
##ba
##ars
##ard
##ace
young
x3
wrist
wi
weak
voice
vitals
ve
triglycerides
treadmill
transplantation
trachea
tone
tachycardic
stri
status,
squamous
sob
smoker,
sleeps
sheath
serial
sec
scattered
round,
rhonchi
request
report,
remarkable
recovery
receiving
reasonably
radical
pylori
psychiatric
pronator
preserved
pravastatin
pink
personal
perfused
percutaneous
para
overnight
overload
ovarian
osteomyelitis
ok
nondistended,
nitro
mu
missed
miles
members
medicines
marginal
macular
lytes
low-dose
local
load
liters
lipitor,
limits
li
left,
ke
involvement
intravenous
ins
inhibitor
inhaler
inferolateral
hypertrophy
hemo
hemi
hair
goes
gives
gallop
function,
frontal
flattening
flare
fingerstick
falls
entirely
enlargement
emptying
elevated,
electrolytes
effect
dysuria
dysarthria
drops
documenting
disorder,
discussing
differential
degrees,
d.
cyst
cycles
cx
cur
creat
conjunctiva
combination
cocaine
chest,
center
cells
bronchiectasis
blocker
bases
bad
back,
b/l
atraumatic,
assistance
arranged
approach
ant
anginal
allergic
agrees
afternoon
afebrile
adverse
admission:
adenocarcinoma
abscess
a.m.
Zofran
Xl
XI
Warfarin
WBC,
WA
Visit
Vancomycin
VT
VF
UNIT
U/L
U.
Two
Tongue
Tob:
Takes
TW
TH
States
So
Script:
Sa
STEMI
SPRAY
SO
SEM
Romberg
Richard
Relative
Refill:
Rec
Ra
RP
Queen
Pulm:
Pt's
Provider:
Pressure:
Plt
PRE
Obesity
OS
Nu
Notable
Nick
Need
NOTE
N/V,
Mr
Mood
Mental
Medication
Labs:
Labetalol
L4
Ko
Kenneth
K.
Jun
Jo
JAR
Ibuprofen
II/VI
Hyperlipidemia:
Hydrochlorothiazide
Hernia
Hearing
Habits:
HO
HIV
HEART:
HEALTH
Glu
GLYBURIDE
Final
Fa
FULL
FA
Eye
EtOH,
Ed
EKGs
Due
Distal
D.
Cor-
Compared
Class
Cholesterol-LDL
Cholesterol-HDL
COR
CONSULT
CI
But
BREAKFAST
BPH
Au
Arthritis
Artery
Amt:
Although
Also,
Agree
Adenosine
ABN
98.
9.1
8.5
8)
72,
70-year-old
5/2
5.6
4L
4/
31.0-37.0
28.
26.0-34.0
25.
25,
240
222
22,
215
2.8
175
15.3
144
141
140/
12.9
11/8
11/2
11/09/2080
11/08/2080
11/0
108
106
10/1
10-
1/6
05/1
03/15/2104
02/1
02/03/79
01/31/2077
/-
-Continue
)h/o
(t
(not
(c
(LORAZEPAM)
(Hematocrit)
(36.0-46.0)
(25MG
(21
(0.4
(0.2-0.4)
(0.0-1.0)
##:
##UA
##SI
##PT
##NN
##ML
##LD
##LC
##IV
##IR
##HER
##HC
##GI
##BA
##94
##87
##72
##46
##4/
##2)
##18
##14
##115
##05
##/u
##/f
##/d
##/G
##-P
##-B
##-7
##xi
##x,
##ural
##ult
##ulation
##tu
##tt,
##tor
##tan
##syn
##sy
##ri
##rc
##press
##pm
##pla
##out
##ose
##ors
##orm
##odi
##oc
##mer
##lp
##lle
##ler
##lc
##ip
##ime
##ife
##icular
##hen
##hed
##hal
##h,
##gh
##form
##era
##ded
##cul
##c,
##bs
##ber
##bb
##ato
##ations
##ati
##ast
##are
##af
##active
zo
work,
woke
wife,
wheelchair
wait
visualized
vibration
ventral
upstrokes
undergone
tubular
trauma,
transcribed
symptom
switched
surgeries
suicidal
strokes
statin,
spleen
speak
sound
sit
shin
sclerae
rising
ri
revascularization
retinopathy,
removal
regards
referring
reduction
rebound,
reason
reaction
qid
progressively
prevention
premature
postoperative
portion
polyps
pleuritic
planning
pin
pills
physiologically
pertinent
percocet
pelvis
patients
pan
pains
painful
pH
obs
nystagmus
non-distended,
neg,
native
myalgias
month,
minutes,
mi
mg/dL
metoprolol,
meta
mean
mass,
marrow
machine
mEq
loop
longstanding
lo
lie
lasix,
job
insufficiency,
instead
inflammation
i.
husband,
history:
guarding,
gtt
ground
gotten
gm
glucophage
follows
finally
final
fi
fellow
feet,
features
extremities,
extremely
expiratory
experience
entire
emotional
easily
du
document:2-
distention
distended,
discontinue
dis
diff
device
definite
da
d/w
cramps
crackles,
constant
complain
clearance
cho
cardiomyopathy
captopril
calculate
bruit,
brisk
brief,
brachial
bl
beyond
balloon
b/c
atypical
attending
asbestos
asa
appreciated
anteriorly
angle
am,
altered
agent
against
affected
act
abdo
WE
Vioxx
VIAL
V5
Unknown
UR
UAS-BACT
Type:
Transcription
Tobacco
Three
Td
Tartrate
TOPICAL
TI
TG
TARTRATE
TA
Sub
Some
Sex:
Seroquel
SH
Room
Resident
Rel
Regarding
Rectal:
Rare
RO
RIGHT
RI
RCA,
Prop
Pravastatin
Plavix,
Penicillin
Park
PULM:
PPD
PDA
PAP
PAIN
Overall,
Nutrition
Nodes:
NT/ND,
NJ
Myocardial
Multivitamins
Migraine
Mellitus
MANAMANA
LU
LMR
LM
LH
LAN
Just
James
Initially
ISSUE
IR
Hematology
Hcl)
HbA1C
HL,
Followup
Folic
Fluoxetine
Fair
FEN
Examination
Em
EXTREMITIES:
ECHO
Done
Docusate
Diabetes:
Dia
Di
Data
DTR's
DJD
Coumadin,
Complaint:
Comp
Colon
Chemistry
CSF
CODE
BUN/Cr
BO
BMH
Awake,
Atorvastatin
Asked
Arterial
99.
94%
8.8
7.9
7.2
63-year-old
6,
5MG,
5-
40.
40-70
4.9
4,
30-
3/3
3/1
2:
29,
25MG,
22-44
2087
2062
150mg
128
126/
114
11/9
10:
1.8
04/27/2100
04/2
03/2
02/17/2076
02
01/04/2103
0.07
0.0
-A
(re
(Hemoglobin)
(H
(500
(4.00-5.20)
(4)
(2.6-4.1)
(100
(0
#180
##UL
##UE
##TT
##TAL
##RY
##RS
##PA
##P,
##MB
##In
##ER,
##EC
##DM
##?
##99
##73
##7-
##56
##53
##5)
##44
##3/8
##26
##04/13/2067
##02
##0%
##/V
##/Re
##/I
##/F
##/E
##/209
##/207
##.0)
##-C
##ym
##ye
##win
##via
##ved
##var
##ute
##us,
##ure,
##ull
##ule
##spa
##sl
##sing
##sia
##s-
##rea
##ran
##r.
##que
##pr
##port
##p,
##ori
##ore
##olo
##nis
##ning
##nic
##ned
##nea
##mit
##man,
##lis
##ker
##itis,
##ism
##is,
##ino
##im
##ila
##i,
##hr
##here
##han
##field
##fe
##ez
##ert
##ero
##ema
##ella
##dur
##dis
##ck,
##cho
##bit
##bili
##am,
##ally,
##all
y
worrisome
wheeze,
well-nourished
weight,
wearing
vomit
vibratory
various
urinalysis
urgent
upstroke
upset
up,
understanding
ultimately
typical
tre
tone,
thumb
text
systems,
supplement
suggesting
successful
subclavian
steroids
someone
sleep,
skel
simple
si
shoulder,
sho
seven
seizures
rhonchi,
resulting
requires
requested
refill
recalls
qua
purulent
pt's
provided
prophylaxis
progressed
pri
present,
ppd
pop
pneumonia,
planned
pi
pericardial
pain;
pain:
page
operative
occurs
numerous
normocephalic
noncompliance
narcotics
mixed
midline,
measuring
maximal
mask
manage
malignant
malignancy
legs,
left-sided
leave
k
initiation
incomplete
inc
impression
ill
identify
idea
hydration
humerus
hospital,
helped
head,
gu
gross
glycemic
gas
functional
front
fr
formal
focus
flo
flash
filling
fibro
faint
factors,
explain
exception
end-stage
elbow
dysphagia
dys
don't
diuresis
diameter
develops
development
degrees
deficits
cp
coverage
course,
coughing
copy
coordination
considering
cons
conduction
conc
complained
claudication,
cla
circulation
ce
causing
carcinoma
cap
calcification
burn
broad
block,
begin
autonomic
atrophy
arrhythmia
apnea
antibiotic
aim
affect
aerobic
activities
[1],
Zetia
Z
YE
X.
Wednesday
Viagra
VA
V:
V3
Urology
Up
Ulysses
UAS-SQHI
UA-Nitrite
Thi
TM
THIS
Stephen
Stent
Senna
SHx:
SD
SCA
Rivers,
Resp:
Reflexes
Recheck
Raynaud's
R:
R-ICE
R,
QT
Pulse:
Possible
Pennsylvania
Penicillins
Pen
Paxil
Patient,
Pat
PVC
PV
PREDNISONE
PLA
PFO
PER
PCP,
PANEL
Overall
Oct
Occasional
OSA
Non-
Nodes
Neurologic
NI
NASAL
NAD
Musculoskeletal
Mucous
MVI,
MM
MH
MG)
MEQ
LVH,
Keflex
J.
Include
Inc
Imp
IM
Hyper
Hydralazine
Helen
Hard
Ha
Gi
Frank
Fo
Finger
Few
Endo
Edward
ES
EOM
Dose
Dist
Diet:
Dialysis
Diagnostic
DVT:
Cycle
Cx
Currently,
Course:
Conjunctivae
Colace,
Chol
CT:
CRI,
CODE:
COATED)
CNS
CARDIAC
CARBONATE
Bra
Borderline
Bar
Atrovent
Assessment:
Aortic
Alzheimer
ARF
ANA
AN
A/P
9/
8.6
8.3
75/25
7.6
7.4
5.4
4/9
38.
30.
3/
23.0-31.9
2060
20.
2.6-4.1
192
160/
150/80
150/
15-
140/80
12.2
11/16/77
10MG,
1000mg
10/21
1/7
1/3
08/2
02/2
0-8
0-3
0-0.4
-T
-Heent:
-2-
(the
(b
(as
(CLOPIDOGREL)
(5)
(3
(12
(0.00-0.09)
(0.0-6.9)
(0.
(*#),
&gt;60
#)
"p
"c
##\u
##ZA
##YS
##UM
##Re
##PR
##PP
##PER
##PC
##MP
##LU
##IDE
##HT
##EP
##ENT
##EA
##CO
##AS
##AB
##71
##6.
##48
##43
##4/6
##4/209
##4-
##3/
##206
##1/8
##0.
##.2
##-p
##-S
##-D
##-10
##----
##zine
##xe
##work
##wi
##we
##way
##vi
##ura
##ume
##um,
##uit
##ug
##tomy
##tions
##tine
##ties
##tati
##ste
##sis,
##rre
##rn
##rat
##pine
##ph
##over
##our
##opathy
##oli
##old
##oke
##ny
##nn
##nci
##nch
##mor
##mic
##lone
##logist
##k,
##ire
##in,
##ima
##ible
##gi
##ger
##ga
##eva
##ernal
##ere
##ena
##ele
##ei
##du
##dol
##dit
##dem
##date
##ctomy
##ction
##ced
##can
##bu
##betes
##ara
##ald
##ade
woman,
why
walker
visits
visible
view
valvular
value
val
use:
unlabored,
unilateral
uncontrolled
u/s
typically
travel
transfused
toward
ti
thrombus
thro
those
talking
table
symmetrical
sustained
surrounding
sublingual
strongly
straight
sto
steady
spasm
son,
signif
severity
sets
sensitivity
self
sample
s1,
s1
rise
right-sided
returning
retention
restarted
rest,
resp
resolve
reportedly
remember
remainder
reflux,
recreational
recovered
rarely
ramus
prot
pra
postop
positive,
plt
pillows
persisted
pen
passed
palate
ot
oriented,
optimal
operation
occurring
nephrotic
nephropathy
nearly
ne
minute,
meds,
looking
levo
letter
leg,
knees,
kind
jaundice
issues,
inpatient
infarction,
inadequate
important
impact
immediate
imm
hypothyroidism,
hyperglycemia
hepatosplenomegaly,
hemoptysis,
heme
height
headaches
hasn't
gradient
fusion
freq
fla
field
facility
extension
expect
exercise,
exclude
events
esophagus
emp
elevates
eight
effort
duration
downgoing
doubt
document:1-
displaced
disk
disa
dilatation
digoxin
developing
demonstrate
dementia,
deferred
defer
day;
cr
cozaar
correct
cool
controlled,
conservative
clot
clopidogrel
cigarettes
chair
cervical,
cavity
cath,
calcifications
brief
border
bipolar
biceps,
bicarbonate
attributes
aorto
anxiety,
anterolateral
anatomy
alternating
alcohol,
adjustments
accident
abuse
abnormality
Xi
Xayachack,
Without
Warm,
Warm
Victor
Vi
Ver
V4
V2
UA-pH
UA-Specific
UA-Occult
UA-Ketones
UA-Glucose
UA-Albumin
U/
Tums
Tu
Transplant
Ta
TX
TRANS
TMs
TIBC
TAB.SR
Street,
Sp
Sodium)
Sliding
SVC
SULFATE
SSCP
Routine
Remains
RUE
REC
Que
QPM,
Problems
Primary
Previously
Preceptor's
Pla
Personal
Patient's
Patent
Pan
Pager:
PTFE
PTA
PEA
Outpatient
Osteoarthritis
Ol
Observation
OD
OB
None,
Nexium,
Neurological
Nephrocaps
Nephro
Nausea
NORM
NE
NATHAN
Motrin
Morphine
Micronase
Mal
MVI
ML)
MIs
MEMORIAL
MEDIQUIK
Leg
LIPS
LDH
Johnson
Isordil
Inf
Impressions
INHALER
Hypothyroidism
Hypertension,
HSM
HEM
HCAST
H2
Gravity
Grand
Gait:
Fragmin
Femoral
Feb
FOL
Effexor
EMG
ECG:
E.
Discrete
Despite
Des
Department,
DTR
DS
DD
Cough
Clonazepam
Chan
Ch
Cancer
Call
CKMBRI
CKMB
CALCIUM
Bur
Bladder
Bipolar
Ba
BRBPR,
BCx
BA
App
Again,
Additionally,
AVR
AO
AI
A&O
9:
97,
9.3
8/2
8/1
8/
7/2
7/1
6:
68,
600mg
6/0
5.2
5-6
40-
3:
39.
325MG,
3/0
23,
206
2/8
174
168
15:
155
151
142
135
123
12/20
12/2
12/1
111
11.1-13.1
106,
100,
1/20
1-
06/16/2064
06/0
05/2
05/01/2066
04:
04/1
03
02:40
02/25/2083
0.125
-R
(s
(he
(f
(CHILDRENS)
(15
(0-0.4)
##W,
##URE
##RB
##MIN
##MENT
##MC
##M,
##LI
##LAND
##ION
##IO
##IG
##HI
##GM
##GA
##ET
##EM
##Co
##CU
##CK
##9/
##8/
##6)
##5%
##38
##2.
##1/9
##1/209
##0mg
##0MG
##/se
##/r
##/h
##/co
##/B
##/80
##/10
##-o
##-f
##(no
##(T)
##&#8221;
##&
##ya
##welling
##vers
##usion
##tion,
##tial
##tia
##thi
##th,
##sti
##scopy
##s)
##rop
##ression
##rdi
##rac
##pnea
##operative
##om
##ologic
##oe
##nodular
##nephritis
##nding
##nc
##nate
##mu
##mine
##mcg
##mat
##lor
##lie
##lia
##lateral
##lace
##ks
##je
##ja
##ips
##ini
##iness
##ilin
##ies,
##ics
##ib
##hic
##gu
##gra
##gn
##ging
##for
##fa
##eve
##ept
##enti
##ely
##ected
##eatinine
##dro
##dle
##dd
##cular
##cl
##cke
##cha
##by
##but
##ani
##als
##al,
##ai
##ag
yellow
x1,
worsen
worried
well-healed
well-
weekly
wear
urology
tunnel
tub
till
throat,
thickened
thank
te
sx,
sweats
swallow
successfully
suboptimal
subjective
strips
stopping
stomach
stand
spells
specifically
sou
sons
smoke,
slurring
sized
sig
siblings
shunt
seen,
scars
satisfactory
sa
root
right-handed
retro
restriction
respond
resolving
resolves
rel
refused
reassess
raise
q4
protrudes
proteinuria
progress
prob
pretty
polyuria
podiatrist
pathology
partially
paper
palp
os
ordered
oil
offered
obstruction,
o/w
nothing
norvasc
nocturia,
nipple
neuropathic
nephropathy,
nebulizer
narrowing
narrow
myelo
must
mother,
morbidly
mon
modified
mm,
mis
midnight
mgm
meeting
medically
mediastinal
measures
matter
losing
lopressor,
lived
limiting
limitation
levofloxacin
level,
leading
lbs,
invasive
interest
insurance
initiate
infiltrate
infectious
image
im
ice
hyponatremia
hyperkalemia
hydro
humeral
hr
hopefully
ho
hidradenitis
her,
heparin,
helps
helpful
healthy
he's
habits
guarding
glasses
glass
gastroesophageal
fundi
fu
fractures
foramen
for:
foot,
folic
fol
flights
fingersticks
ferrous
fatty
fatigued
experiencing
experiences
exercises
ex
ever
epidural
enteric
endocrine
emboli
dye
dull
droop,
document:9-
document:0-
disturbance
discoloration
diet;
decide
death
cre
cook
consolidation
comp
comfortable,
coli
cigarette
chronically
chol,
child
cal
brothers
blu
biphasic
biomarkers
bilaterally;
better,
beta-blocker
believes
basilar
axilla
audible
attack
arthritis,
ap
answer
anorexia,
amp
amenable
alone,
allow
age,
afebrile,
adult
adjusted
acutely
ability
a1c
Ya
Xan
Wife
WMA
WI
Vas
Used
Ursula
Urinalysis
Uriel
Unfortunately,
Unchanged
Unable
Transcribed
Thomas
TURP
TARTRATE)
Supple
Suite
Street
Speech
South
Slow
Si
Seizure
Sand
San
SU
SQ
SPEP
SIMVASTATIN
Robert
Riley
Rhythm:
Resp
Referring
Ref
Red
Recurrent
Received
RENAL
RELEASE)
Pump:
Psych:
Procardia
Podiatry
Pneumonia
Phos
Pharynx
PRBC
PPI
POBA
PFTs
PE,
Oxycodone
Oriented
Olivier
Obs
Nph
North
Norman
Nielson
Neg
Neck-
Nasal
NORMAL
NEB
ND
Mono
Minimal
Mg)
Men
Member
Mc
Man
MED
Losartan
Lipitor,
Lipid
Levofloxacin
LOVELAND
LCx
LCX
LASIX
LAE,
L:
L4-5
John
Jacob
JA
Ito
Ins
Increased
IP
IL
Hea
HTN-
HPI,
HM:
HL
HISTORY,
Gluconate
Given:
Geiger
GYN
Francis
Foley
Folate
First
Fellow
FI
FEV1
Eyes:
Eubanks
Ecasa
ETOH,
ER,
EOMI
Doss
Diverticulosis
Digoxin
Dep
Degenerative
Daughter
DROP
DP/PT
DONE
DISEASE
DC
D5
Cu
Critical
Could
Comes
Cervical
Ce
Cast
Carotids:
Cardiologist:
Carbonate
Car
Captopril
CONSULTATIONS
COL
CHOP-R
CHEST
CD
CAD:
C/
Brandon
Bl
Best
Benjamin
Bell
Baseline
BE
Avapro
Av
Anxiety
Alb
Ag
Additional
Actos
Acetaminophen
Access
Ac
ATTENDING
ASS
ARB
AR
A&amp;O
98.2
98,
90,
9.4
80-
80,
750
70,
61-year-old
6/
6.8
6.25
6.1
6-
56-year-old
50-
5/1
5/
5.8
5-10
42.
41.
40,
4/7
4/5
4-6
32.
3-5
3-
2mg
22.1-35.1
2093
2085
2078
2076
2070
2/0
2%
166
157
13:
13.9
13.8
13.3
13.1
1200
12/7
12.8
115
113
110/
11.3
100/
10/2
10.2
1.1,
09/1
06/04/2098
04/05/88
03/1
02/0
01/17/2072
01/1
01
0.1-0.3
0.1%
0.00-0.09
0.00
0.0-6.9
0-1.0
-check
-c
-S
-H/o
-E
-D
--Cont
(mi
(co
(OXYCODONE
(NEG)
(N
(METFORMIN)
(LA
(GABAPENTIN)
(DOCUSATE
(80MG
(40
(325MG
(30
(12/2
(0.0-3.5)
(#)
##[1]
##SP
##SOB
##SC
##RV
##RU
##ROX
##RL
##REN
##ONA
##N)
##LEY,
##ITI
##INA
##IE
##He
##FF
##FA
##EY
##DER
##BLE
##B,
##:3
##:1
##:0
##8/9
##8/209
##7.
##7)
##67:
##6-1
##5/
##4/8
##3:
##30/
##2/9
##2/207
##2/
##11/29/2088
##1/7
##0/9
##/m
##/hr
##/cr
##/b
##/81
##/70
##/60
##/11
##/0
##-up
##-si
##-no
##-b
##-21
##-14
##-100
##-0
##---
##(s)
###:
##zep
##yp
##ymp
##ycin
##xic
##xa
##x/
##wk
##von
##vis
##ves
##ve,
##vascular
##vas
##ution
##using
##units
##une
##un
##ump
##ulo
##uli
##tte
##trol
##tr
##tone
##thy
##thro
##tem
##tect
##tch
##tar
##table
##sych
##stolic
##sto
##sta
##sm
##sit
##shing
##rrh
##rot
##romi
##rio
##ril
##rica
##rec
##quin
##qam
##py
##pto
##pin
##phy
##pher
##phal
##oscopy
##ona
##off
##nu
##nti
##nter
##nosis
##nk
##ndi
##ncy
##n:
##my
##more
##metry
##mb
##lm
##lf
##ley,
##ley
##le,
##lab
##kel
##its
##ities
##ise
##io
##ins
##imi
##ili
##ient
##ied
##ider
##ici
##ias
##hing
##heck
##hea
##gy
##grade
##gli
##gl
##gan,
##flu
##flex
##fi
##ffe
##fer
##evi
##ever
##esis
##erc
##eral
##epi
##ensi
##eme
##eas
##dor
##dic
##des
##dent
##dal
##ctive
##cia
##chi
##chen
##che
##ces
##ce,
##cardi
##car
##burn
##bri
##bly
##bal
##aw
##atr
##ation,
##ata
##asi
##arc
##ali
##ah
##agi
##acti
##aci
yrs,
yearly
wounds
worth
wks
wine
whose
weekend
wean
war
walking,
visiting
visit:
vi
vaso
vari
vancomycin
va
ureter
umbilical
turn
treatment,
traumatic
tonight
tone;
today's
tid,
thrombosis,
thrombo
that,
tetanus
term
tend
temporal
surgery:
supine
summary
subsegmental
su
stricture
steps
stating
stain
spring
spi
solid
sober
so,
short-
share
severely
severe,
seat
runs
rotator
retroperitoneal
retinal
responsive
requirement
ren
reluctant
reflect
ready
reactions
re-check
rate,
radiates
qui
ptosis
pt,
pseudo
prove
protection
prop
prompt
presently
preparation
predicted
pravachol
power
pneumovax
ple
playing
place,
pla
phosphatase
pass
paresthesias,
p.r.n.,
organomegaly,
ophthalmologist
observed
nurse,
notice
nose,
normocephalic,
non-invasive
non-ST
nitrates
nil
nights
needed,
muscular
mouth,
mL
listed
levothyroxine
led
learn
leak
leaflet
labile
irreg
intolerance,
inten
insulin-dependent
injections
inflammatory
induced
independent
indeed
inability
improved,
icterus,
ibuprofen
hypotensive
hy
holosystolic
hip,
hernia,
hematochezia,
gui
grown
group
grafting
gout
glaucoma
giving
gap
fx
friend
folate,
flight
flashes
fl
firm
findings,
fibromyalgia
f
exposures
exp
exacerbated
etiologies
essential
esp
endo
encourage
embolism
electro
elective
el
effusions
ed
ec
e.
dropped
droop
dr.
down,
dog
document:8-
diverticulitis
disp
disease;
disease:
directly
dilation
digits
deviation
descending
dentition
demonstrating
delta
delayed
deformity
deficit
declines
debridement
d/t
cup
cramping
corticosteroid
cop
conv
contributing
contain
code
closed
climb
catheterization,
cardiopulmonary
canal
c/c/e,
bx
briefly
bony
blurred
beginning
bath
base,
average
av
ativan
asthma,
arthroscopic
arthroplasty
appropriately
appreciate
appreciable
appearance:
app
antihypertensive
ano
amitriptyline
alternative
alkaline
adjacent
address
ad
ace
account
Zocor,
ZA
Yo
Y.
Xa
West
WFP
Vitals
Verapamil
V.
Use
Uro
Urgent
Ulises
UM
U/S
U/ML
Trazodone
Transfer
Therefore,
Terr
Terazosin
TRA
TF
TE
TAH
Sx
Ste
Source
Severe
Sch
Scale
Saint
SECTIONS
SCM
S1;
Roger
Rivers
Ri
Retinopathy:
Ret
Resident:
Resident's
Rehabilitation
Reg
R.
R-
Pu
Ps
Provera
Prophylaxis:
Pres
Paroxysmal
PP
PLEASE
Otis
Old
OX
ORIF
Nose
Nephropathy:
Neoral
Nar
NY
NKA:
NCAT,
N/V
Mildly
Mi
Mg/
Martin
MR:
MD-Attending
MAR
M.
Lot
List
Lispro
Lipoprotein
Limited
Les
L-
Kidney
Interim
Inhibitor
Ind
Imuran
Ig
Ida
ICU
IABP
Hu
Ht
Hodgkin's
Have
Hall
HPI
HOB
HM
HI
Gre
Graft
Gl
Gil
George
Genitalia
From
Florence
Fl
Ferrous
Exp
Exercise
Elm
Electrolytes,
Ears
EMSSten
Don
Disc
Depression:
David
DTRs
DPs
Crea
Control
Color
Coags
Chil
Chest/Respiratory:
Caldwell
Cal
CVD
CRP
CRF
CON
CGH
CAP
CAD-
By
Buzan
Bill
Betty
Beta
Babinski
BPH,
BMP
BC
Atwood
Atenolol,
Anion
And
Allergy
Add
Ace
About
ATTENDING:
ASSOCIATES
ALLOPURINOL
ADLs
ACS
ACE-I
ABD
AB
AAA
97.9
93%
92%
9/9
9/2
9.7
9.6
86,
82,
8.7
8.0
72-year-old
71-year-old
7.0
60,
6.7
6.2
4:
41.0-53.0
40-150
4.8
4.5,
4.0,
36,
350
33.3
33.
3/8
3/6
250/50
22:
2135/09/03
2086
2084
2083
2080
2/20
2-4
17:13
170
169
153
148/
147
130/80
129
128/
127
120/70
11/08/95
10/24/96
10/24/
10.7
10.6
1.8-7.7
1.02
1.0-4.8
09/06/
09/04/
08:00
08:
0.2-0.4
0.0-0.3
-s
-a
-L
-H
-F
-1
---
**
(to
(e
(do
(denies)
(baseline
(V
(SIMVASTATIN)
(PANTOPRAZOLE)
(OMEPRAZOLE)
(EF
(Dr.
(75MG
(3.
(10-40)
(0.60-1.50)
(0.5MG
(0-2)
%POLY-A
%LYMPH-A
"s
"a
##Z,
##YN
##XI
##X:
##WE
##WA
##UT
##UN
##SIN
##RN
##RAT
##PM
##PL
##PI
##OXI
##OU
##O,
##NC
##Mo
##MS
##MEQ
##Left
##LAN
##KA
##IN,
##II
##Ho
##HE
##ES,
##E:
##DY
##DO
##Ca
##BG
##BET
##Al
##ATI
##AND
##A)
##:00
##8/21
##8/2081
##5MG
##5/9
##5.
##5(H)
##1/2
##/pre
##/ne
##/min
##/9
##/86
##/62
##/4
##.No
##-like
##-in
##-di
##-R
##-N
##-E
##zone
##zo
##yst
##ysis
##yer
##yc
##x2
##x1
##ws
##wo
##wl
##wen
##ward
##vir
##un,
##umb
##ulate
##trop
##tory
##top
##term
##tche
##t:
##sulin
##ston
##sthe
##st,
##sie
##sel
##scu
##sco
##rse
##rine
##rily
##rex
##ress
##rem
##rb
##rati
##px;
##pti
##pril
##pre
##pation
##ove
##osit
##oral
##oph
##opa
##og
##oba
##nts
##nth
##nom
##nl
##nitor
##nil
##ng,
##nes
##nec
##nation
##mos
##ml
##mato
##mar
##low
##los
##loo
##lli
##lg
##let
##leb
##lav
##late
##l:
##ked
##iz
##iven
##itu
##itt
##ith
##itation
##inge
##inf
##ined
##illa
##ign
##iden
##ida
##icial
##ic,
##iatric
##ia,
##hol
##hl
##hil
##hia
##har
##gre
##gment
##gin
##gg
##gest
##genic
##gel
##gar
##gan
##fy
##focal
##flo
##etic
##ered
##eno
##enic
##enia
##elo
##eld
##eed
##eb
##e)
##dose
##cr
##cop
##continue
##cing
##cie
##chan
##ce:
##brea
##bid
##bes
##azine
##az
##ave
##ates
##ardiac
##an,
##amo
##ament
##ama
##ala
##ail
##ae
##ado
##adi
##ack
##ach
xl
wonder
wnl,
witnessed
willing
widowed
wet
wedge
wbc
wax
voltage
vo
vascul
vac
urination
urgency,
unsteady
understand
uncomfortable
uncertain
una
tru
triceps,
treatments
transplant,
tra
toprol
ton
tolerates
today;
thrill
thinking
then,
terazosin
tartrate
talked
tachycardia,
syphilis
syncopal
syn
sxs
suspected
sus
supportive
supplemental
stu
stressed
strength,
stones,
stayed
stasis,
standard
sputum,
spoke
smooth
sm
shown
shift
sexually
sestamibi
senna
self-
seek
scrotal
scr
sco
sats
sati
sarcoidosis
sacral
s2
rrr,
rr
route
rigidity,
rhinorrhea,
rheumatoid
revealing
resulted
responded
respect
represents
replete
rep
relative
regurgitation,
refuses
reducible
recommendation
reco
rapidly
ramipril
radio
quickly
q8h
pus
pur
proper
pressure:
predi
prec
pre-operative
poly
pneumo
play
pink,
personally
persist
perioperative
perf
percussion,
patient&#8217;s
parents
paraphasic
paralysis,
pains,
packed
paced
overdue
outpt
out,
ostomy
opacities
okay
ointment
nt,
notify
normal;
noon
nondisplaced
non-in
nodes,
niece
nephro
nephrectomy
multivitamins
multivitamin
multivessel
moves
migraines
migraine
methotrexate
men
mediastinum
media
measure
meantime,
managing
mainly
lunch
lu
loose
location
loc
length
larger
lady
lact
kidneys
junction
itching
it's
inversions
intra-
intr
intact;
inspiratory
inpt
inferoposterior
infections,
infarct,
inf
indicate
incr
incl
in-stent
ileal
hysterectomy
hypothyroid
hum
him,
hilar
hiatal
hgba1c
helping
heartburn,
hcv
hctz
hands,
habits,
h.
grandmother
gr
golf
glyburide,
glo
gastro
gait,
gain,
furosemide,
fungal
functioning
fullness
forefoot
folate
flagyl
fit
fingers
fibrillation,
femoral,
fecal
fax
exercising
evident
etoh
etc
episodic
episodes,
enter
enlargement,
eng
eg
effective
eGFR
dy
dullness
draw
downs
dorsal
document:6-
diverting
dip
diaph
diabetic,
determined
derm
dep
dated
d/c'd
cyclosporine
coumadin,
contribute
consult:
conjunctival
conjunction
conf
con't
compr
comparison
commands
colace
coke
closure
clo
climbing
cleared
chee
characterized
cerebrovascular
cardioversion
carbo
capillary
calm
calcium,
bright
breakdown
brady
bpg
bothering
bloody
biliary
bic
benign,
bending
begun
bases,
barium
ban
bacteremia
baby
ba
b
awaiting
await
ava
auscultation,
aur
attempts
attacks,
appropriate,
apartment
anion
allergies,
advance
aches
aP
Za
Youngman,
Ye
Xian
Work
WDWN
WAS
W/
Vines
Vicente
Vaughn
Valley
VFF
VALVE,
V6
Uterine
Ure
Upper
Una
Umstead
Ulcer
USE
UN
UC
UA-SED-WBC
UA-SED-Bacteria
UA-
Tra
Thus
Then
That
Th
Tests
Tab
TEST
TEE
TC
T9
T4
St.
Squamous
Spe
Slightly
Sjogren's
Singulair
Sim
Should
Short
Serial
Sennosides
Sees
Sclerae
Sc
Says
Sam
SaO2:
SW
STUDIES:
STATUS:
STATE
STA
SOB/
SM
SLOW
SBO
Road
Risk
Reported:
Release)
Registration
Refills:5
Refill
Refer
Ratio
Rate
RSH
RLL
RISS
RES
RECEIVED
RD
RBBB
Quinten
Question
Quentin
Qua
QOD
Q4-6H
Q.
Pulm-
Pt:
Proscar
Prograf
Place
Phen
Ph
Pers
Peggy
Para
Par
PULMONARY
PTCA/
PRI
POWDER
POD
PEN
PCN
PCH
Or
Om
Olivia
Oliver
Occupation:
OT
OSA,
O.
Noted
Nebulizer
Naprosyn
NM
NABS,
Mucomyst
Micro
Medical/Surgical
Medi
Married,
Manager
Mac
MV
MS,
MRI/MRA
MITRAL
METS
MAP
MALB
Lovenox
Lorazepam
Line
Larry
Large
LS
LFT
LE,
LBBB
Ki
Kevin
Junior
January,
Jacks
JO
Ivers,
Isenberg
Ischemia:
Inter
Int
Insulin,
INTERVAL
INF
IMAGING
III/
I'
Hypercholesterolemia
However
Holter
Hip
Hfa
Hep
Hematologic:
He's
Hale
Hal
HY
HOME
HIT
HH
HCC
Group
Grossly
GLUCOSE
GIB
GAP
G.
Friday
Found
Floyd
Felt
Fellow:
Fai
FVC
FROM
Exce
Ex
Evaluation
Eos
Endocrine
Endo:
Elem
East
EXT
EV
EP
EOMI;
EEG
EDUCARE-FARGO
Dys
Dx
Dulcolax
Div
Discharge
Dis
Diltiazem
Decision
Daily
DVT,
DROPS
D-dimer
D,
Cymbalta
Cy
Cre
Cooley
Contrast
Contin
Const
Colonic
Cipro
Cer
CellCept
Cefepime
CT,
CP/
CONTACT:
CMV
CLO
CLINICAL
CKD
CHOL/HDL
CH
Both
Ben
BLANK
Aug
Att
Assessment/
Arm
Aricept
Ap
Ankle
Amoxicillin
Ambien
Altace
Afib,
Adult
Accupril
Abx
AODM
ANEUT-A
ABI
A1c,
A-
97.6
97.2
9/0
9.8
9.4,
9,
875
87,
8/0
8,
78,
76,
73-year-old
66-year-old
6-8
5.1
5.0,
35%
34.5
31,
3.8,
2x
26,
25%
230
2103
2096
2090
2075
2072
2066
2065
2064
176
164
160/80
15:06
156
154
144/
143
141,
14.0
13.5-17.5
1250
11:
117
116
11/20
11/
11.8
10.9
10.0
1/4
1.015
09/23/2076
09/03/2096
08/1
08/09/2092
08/09/
08
07
06/03/2098
05/0
05,
04/03/2074
04
03/0
01/0
0.8,
0.10
0.02
0-1
-t
-s/p
-re
-m
-cont
-M
-G
(with
(w
(though
(su
(st
(she
(see
(se
(recent
(la
(but
(at
(adult
(Pro
(Le
(LOSARTAN)
(LEVOTHYROXINE
(GLIPIZIDE
(FLUTICASONE
(CYANOCOBALAMIN)
(9-32)
(45-115)
(40-150)
(37
(3-100)
(10-55)
(1.3-6.0)
(0-10)
(0-
&#183;
%MONO-A
#6
"th
##YT
##YP
##YA
##Va
##VER
##Un
##Th
##TRI
##TOR
##TN
##TAN
##T:
##STER
##STA
##SON,
##S)
##RIN
##RIM
##RC
##Patient
##Pa
##ONS
##OLOGY
##MY
##MON
##La
##LV
##LOW
##LIN
##IST
##IES
##HY
##FU
##F/
##DL
##DA
##Cr
##Car
##CY
##CHE
##BS
##BL
##AZ
##AK
##AG
##A:
##:5
##9.
##9(H)
##8.
##8(
##7;
##77,
##7/207
##6/207
##5:
##39
##3/1
##2:
##2088
##1C
##/v
##/te
##/t
##/or
##/VI
##/U
##/50
##/21
##/125
##/1
##.P
##.A
##-w
##-po
##-mo
##-he
##-e
##-V
##-T
##-I
##-90
##)-
##%),
##yper
##ylor
##ying
##year
##y:
##xam
##with
##will
##wer
##wave
##vol
##visi
##vic
##vere
##vastatin
##vag
##ussi
##ush
##usc
##urn
##uria,
##uria
##uel
##tus
##ture
##tud
##tru
##tre
##tous
##tolo
##tn
##tly
##tist
##tinen
##tib
##the
##tero
##te,
##static
##ssion
##sive
##siolog
##sil
##sic
##set
##sage
##s/p
##s),
##rve
##rupt
##rum
##rry
##rri
##rou
##rma
##riti
##rim
##right
##rib
##rgi
##rey
##ree
##rect
##rant
##ram
##raf
##rad
##r)
##r's
##qu
##px
##pirin
##pirat
##pha
##peri
##pat
##ou
##otr
##otomy
##orrheic
##oro
##opro
##oni
##onal
##ogram
##oa
##ntin
##not
##nor
##ngi
##nde
##nchi
##nar
##nanc
##moti
##mon
##mol
##mina
##met
##mental
##matous
##matic
##mall
##m:
##lyceride
##lus
##lon
##logic
##loc
##lit
##list
##lip
##les,
##lero
##lene
##lat
##lant
##ju
##jo
##iva
##iu
##itrate
##itin
##ital
##isk
##ised
##ious
##ina
##imp
##ii
##ific
##iev
##ier
##ibi
##iati
##hold
##gni
##git
##gement
##gal
##fo
##fil
##fied
##eth
##eta
##ese
##ering
##eration
##eph
##epam
##ens
##end
##eli
##ela
##ega
##eati
##dri
##done
##don
##dom
##d)
##cytes
##cysteine
##cte
##cri
##cos
##contin
##cod
##cas
##by,
##bst
##born
##blo
##bled
##bing
##beta
##bet
##bc
##azo
##ason
##ash
##app
##ano
##ane
##and,
##amine
##amil
##ale
##alcohol
##ache
yesterday,
yard
xray
wwp,
wrists
word
wo
withdrawal
well-developed,
warmth
w/d
views
vent
ven
vegetations
veer
unfortunately
undergoing
ultram
ulcerations
ulceration
tylenol
tunneled
trop
triple
trig
tremor
trazodone
transverse
transfusions
toxicity
topical
toes,
toe,
tingling,
times,
thrush
threshold
testosterone
testo
terri
tell
tel
teaching
talk
tacrolimus
sys
symmetric,
surveillance
surgeon
sur
suprapubic
suppurativa
supp
super
sulfa
suggests
substantial
subacute
strea
stre
stools
stone
stiffness,
sticks
stick
sternotomy
stenoses
stea
starts
sq
spot
spirits
span
sores,
sn
slurred
slowing
sleepy
sinuses
simvastatin,
silhouette
shoes,
shallow
session
sending
seated
say
salt,
safety
safe
sA
s/
rub,
ros
role
rod
ring
rheumatic
rh
retrocrural
reso
remission
relationship
relates
rehab,
regional
reevaluate
recurred
recur
rectum
rect
recovering
reassur
reasons
react
ranitidine
raised
radiology
radiated
radial,
questions,
qAM,
q12h
q.i.d.
pubic
psychotic
psycho
psychiatry
psoriasis
proxy
prophylactic
prog
profound
procedures
prn,
pres
prerenal
preoperative
preop
precordi
pre-op
pound
positives
pos
podiatry
pm,
plavix,
phos
pharmacological
pers
peroneal
peri-
perforation
patent,
patchy
paresthesias
pare
paraspinal
par
papill
panic
panel,
palpitation
pain-free
oz
overt
ou
osteop
osteo
optic
opinion
obtuse
observation
objective
nystagmus,
nuclear
nph
nourished
normoactive
nons
nonfocal
non-c
nodular
nml
niacin
nexium,
nephrolog
necrosis
neb
narcotic
naming
nails
mucus
monitored
modification
missing
mins
minimally
methadone
mesenteric
mention
meningi
melena
meat
maximum
mar
manifest
mammo
malaise,
lympha
lumps
lovely
loud
losartan
lorazepam
long-standing
live
lifting
lib
leukocytosis
largest
kept
itself
iso
invest
inverted
intubated
interprete
interfer
instructions
instability
insta
infl
infarcts
indication
indicati
inco
include:
ina
in-
impo
impairment
hypoxic
hyperp
hyperc
hydrochlorothiazide,
hydrea
hrs
hemorrhage
hear
healthcare
hardware
happened
hand,
habitus
h/
grand
good,
glands
gir
general,
ge
gastroparesis
gar
gabapentin
fru
fos
fo
flut
flexor
finger-
film
female,
favor
fai
fact,
f/c
eyes,
eye,
extreme
extract
explicit
exams
examine
exa
everything
eventually
estrogen
err
erecti
equivalent
equally
epistaxis,
embolus
else
elev
electrolyte
effusions,
ecchymos
dyspneic
dysmetria
dysfunction,
ductal
duct
doxycycline
doppler
door
domestic
document:3-
dm
diverticulosis
diverticul
diurese
dist
dissection,
discs
discovered
disco
diltiazem
diffusion
desire
depend
dens
den
demand
dem
delay
del
dehydration
definitive
deficits,
decline
deal
cus
culprit
ct
cry
critical
cra
covering
counseled
cost
correlate
core
conver
continu
contacted
consist
congestion
confi
conditions
colonic
collaterals
colla
colchicine
clots
clonidine
clon
cig
chief
ch
ceftriaxone
cefepime
cat
carr
carpal
caring
cardio
carb
can't
calci
cad
c/c/e
bundle-branch
breakfast,
break
bound
bottles
born
blood,
blockade
bloating
blo
blind
biopsie
bilat,
beta-blockers
belt
becomes
bare
band
balance
background
b/
awakening
augment
attack,
atrop
association
assisted
asp
ascending
artif
arthralgias,
arrival,
appendectomy
anxious,
anticoagulated
antibody
anal
ana
amylase
ambulance
alive,
air,
agitated
afib
advanced
adn
administer
adenopathy,
acting
access:
acce
acanthosis
abuse:
abnormalities,
abduct
Zestril,
Youngman
Yas
Xuereb
Xuan,
Xin
Xie
Xanders
X3
Wood
Win
Willie
Wi
Whit
Wh
Went
Wellbutrin
Walks
WT
WILL
WARFARIN
Voice
Visual
Vision
Villa
Victoria
Vicente,
Vibrat
Vern
Venous
Vari
Valsa
VNA
VE
VALVE
VAL
Usual
Uri
Unspecified
Uni
Unclear
Ultra
URIEL
UR-SPGR
UP
UO
UCx
UAS-
UA-SED-RBC
Tricor
Treat
Transient
Trachea
Tox
Tinea
Thursday
Teeth:
Tam
Tablets
Tablet(s)),
TTE:
TR,
TIA,
TEMP
Suspect
Sunday
Substance
Strict
Stopped
Stop
Staff
Spi
Specimen
SpO2
Solostar
Signs:
Signs
Send
Sca
SV
SUSP
SPECIMEN
SN
SGPT
SGOT
SERUM
SB
SAT
Robi
Rhythm
Rheumato
Restart
Referred
Ranitidine
Ram
Radiology
Radial
RR2
REGULAR
REASON
RCH
RAN
Quinton
Quinine
QTY:1
QID,
Q12H
Py
Psychiatry
Prot
Pre-op
Powder
Port
Poor
Plantar
Phoslo
Peri
Pathology
Pancreatic
PUD
PT,
PSH:
PS
POST
PO4
PNA,
PN
PMR
PLV
PICH
PI
PHYSICIAN:
PGY-1
PF
PCP):
Our
Osteop
Ost
Oro
Originally
Ophthal
Onset
Onc
Ogrady
October,
Ocampo
OM2
OG
OC
O/P
Nurse
Normocephalic
Nitro
Neuropathy:
Neuro-
Nancy
NU
NQWMI
NEURO
NECK
NAMC
Ms
Mouth
Morgan
More
Mod
Mill
Microscopic
Michelle
Metro
Mea
Material
Mary
Many
Management:
Mana
Making
MN
MEDS
MAH
M-alb/creat
Lumbar
Louis
Lopid
Long
Lipids
Lin
Levoxyl
LYMPH
LR
LOC
LLL
LIS
LFTs,
L5-S1
Klonopin
Klein
Ker
KI
KC
Jul
Joshua
JE
Isosorbide
Intern:
Indocin
Immun
Illicit
Ile
INTERN
IMI
III,IV,VI
IDDM,
IB
I&
Hy
Husband
Hepatobiliary:
Heme/Onc:
Head:
Handle
HX
HOL
Gyn
Gri
Gregory
Gra
Gonzalez
Ger
Gentamicin
Gaine
Gabriell
GR
GO
Frequent
Fredrick
Fred
Fou
Florida
Floor
Fin
Fentanyl
Fem
Fam
FM
F/C/
F/
Etheridge
Esp
Entered
Endoscopy
Ell
Ehlers
Echocardiogram
Dismissal
Diagnosis:
Dev
Demerol
Data:
Daniel
DU
D2
Cry
Cros
Cozaar,
Course
Counsel
Constipation
Confidential
Concern
Coated)
Clindamycin
Claudication
City,
Ciprofloxacin
Chl
Char
Cellulitis
Cau
Cataract
Carr
Cardio
Card
Caltrate
CXR,
CVS
CKD,
CHOP
CHF:
CHEWABLE
CEA
CBC:
CATH
CARD
C-
By:ostrowski
Bre
Brain
Brady
Bp
Booster
Bil
Benitez,
Barbara
BPs
BOWEL:
BK
BH
B-cell
B,
Az
Avenue
Ass
Art
Anti
Anc
Amitriptyline
Ami
Alt
Allopurinol
Allerg
Albert
Airway:
Air
Aggrenox
Afebrile
Acc
Abdo-
ATORVASTATIN
ASSESSMENT:
AMLODIPINE
AA
99,
95,
9.5
8:
81MG,
8.4
76-year-old
75M
74,
70-
70's
7.7
6F
69,
65-year-old
64,
60s
6/76:
6/2
6.3
6.0-8.3
58,
50/25
5/9
5/325
4.50-5.90
4.1,
3x
3L
36.0-46.0
35.
33.8
33.7
300MG
30.4
3/89
3/10
3.3-5.0
2PUFF
29-
28.8
260
26.1
251
250mg
236
231
21:
2135/09/04
20:
209
2081
2077,
2074
2073
2071
202
200MG
200-
2/94
2.5MG
194
183
177
173
158/
1500
148
146/
145/
140/7
140,
134/8
13.6
13.0
12:
124
122
120/6
12/3
12/18/2080
12/10/11
12.7
12.5mg
12.4
12.0
11.7
11.5
10:4
10:1
10/9
10/7
10/3
10/20
1.25
1.010
1.00
09:
09/0
09,
07/0
07,
06
04/10/2082
033388269
03/24/2097
03/20
03/15/
0.9,
0.5)
0.5%
0.3,
0.05%
0.05
0.04
.1
-n
-hold
-f
-di
-Will
-S/
-IV
--check
(which
(un
(s/p
(r
(pre
(o
(me
(lo
(li
(ho
(g
(for
(WARFARIN
(PA
(No
(NO
(Lasix
(G
(Co
(Aspirin)
(ALENDRONATE)
(80
(600
(300MG
(3/
(22.1-35.1)
(150-400)
(13
(0.2
(*)01/27/2081
(#),
&#189;
#100
##\
##YL
##XR
##VIT
##UTI
##UG
##TZ
##TY
##TRO
##TRA
##TEROL
##Se
##RON
##R:
##PS
##PD
##P:
##OW
##ONE
##ON,
##OK
##NCI
##NCE
##Me
##MH
##MAL
##LT
##LP
##LOS
##LLOW
##IUM
##IP
##IDA
##ICAL
##HEN
##HAR
##G/
##FOR
##FEN
##ETH
##END
##Dec-20
##DRO
##CULAR
##CLO
##CL
##CER
##CARE
##Aug-20
##APE
##9/9
##9/2
##9%
##88,
##80,
##8/8
##7/21
##6/9
##6/7
##6/2081
##6(
##5/20
##4/208
##4/2
##31
##2097
##208
##2/7
##1/6
##1/21
##0/210
##0/
##0-1
##/w
##/tr
##/ti
##/su
##/ml
##/ga
##/bu
##/W
##/Plan:
##/O
##/96
##/94
##/8
##/75
##/2081
##/12
##/100
##.S
##.He
##.C
##.:
##-year
##-v
##-to-
##-pr
##-l
##-fi
##-block
##-W
##-F
##-30
##-18
##-15
##-,
###)
##}
##zyme
##zol
##zing
##zil
##ytic
##yt
##yrs
##yph
##ype
##yon
##yd
##yclovir
##xt
##xotere
##ximal
##xia
##xapro
##xan
##while
##week
##wal
##vent
##vasc
##vai
##uter
##uss
##uri
##urc
##upt
##unt
##uma
##ulovillous
##ulin
##ui
##tting
##ts,
##try
##tro
##trate
##ton,
##toma
##tom
##tol
##tle
##titute
##tili
##tha
##tera
##ter,
##tension
##tely
##tea
##tate
##tained
##tail
##t.
##sy,
##sure
##supp
##sul
##stric
##str
##stone
##stomy
##stat
##stan
##stal
##stable
##sse
##ssa
##spi
##space
##sone
##siti
##sin
##side
##shi
##sf
##scopic
##ruc
##rth
##rome
##ro,
##rne
##ries
##rid
##rh
##rge
##rest
##res
##renal
##rbi
##rai
##rage
##radi
##r;
##quent
##ppe
##point,
##plo
##pit
##pho
##phils
##pheno
##perative
##pera
##pec
##parat
##pan
##padding-
##ox
##oven
##ovan
##ough
##oti
##oth
##ost
##omies
##ometry
##olic
##ol,
##oin
##ograph
##oco
##och
##oat
##ntion
##nte
##norm
##nne
##niti
##nici
##nge
##nf
##ney
##net
##nest
##nee
##nasal
##nary
##nan
##myalgia
##mot
##mont
##mmo
##mm)
##mis
##mid
##meth
##medi
##mcg/spray
##mary
##mad
##mac
##lysis
##lut
##lton,
##lso
##lowe
##long
##lk
##lio
##ler,
##leg
##lect
##las
##lami
##kinetic
##kely
##ization
##ivi
##ito
##itive
##ition
##itia
##ista
##isch
##iona
##inue
##inte
##ining
##imes
##ilities
##ike
##iga
##iferative
##if
##ido
##idi
##iate
##hyroidism
##hu
##hoo
##hma
##hest
##hemo
##hat
##hasi
##ham
##h:
##gur
##gular
##gt
##gro
##gm
##globin
##gestion
##gent
##fusion
##fully
##fu
##fr
##ffin
##fem
##father
##exal
##exa
##eti
##ete
##esti
##essed
##erti
##erial
##erative
##epsia
##entr
##ental
##eni
##emo
##emia,
##ek
##een
##duced
##dt
##dre
##dra
##dn
##disc
##din
##did
##d/
##cytic
##cyst
##culat
##cro
##creased
##cor
##cope
##cn
##cking
##cio
##chia
##cated
##cardial
##bular
##btain
##bpm,
##bility
##bilinogen
##bif
##bial
##bert
##ays
##aur
##athy
##ather
##ass
##asis
##as,
##ari
##apine
##ape
##ange
##aki
##ake
##air
##aging
##ages
##adin
##actone
##aco
##ability
z
you,
yes
writing
write
words
widely
weight:
weighs
weaned
wasn't
wall,
walked
volunt
vis
vir
vertebro
verbal
verapamil
vegeta
varicose
vanc
uros
urgency
updates
unw
unt
uns
unco
ultra
ulcers,
twe
trunk
troponins
tries
tri
trend
tremor,
transmit
transition
transfusion
tr
tox
touch,
together
titration
tip
tiny
thru
thrombotic
thora
thirst
things
thing
therefore,
th/cumm
terminal
tells
tear
tan
tachy
t.i.d.
syringes
sym
sx's
switching
suture
supposed
supper
summer
such,
succ
strict
strep
stra
stools,
sti
stented
staying
stabilized
st
spread
spor
spontaneously
spl
sob,
skip
sisters
side,
shortly
shooting
shoes
she's
shak
series
sensitive
sens
semi
segments
sedentary
seb
scale,
scal
saturat
sali
s2,
s1s2,
runny
rotation
rhythm;
revision
reticul
results,
restrictive
restenosis
restarting
responding
resolved,
resistan
rese
replacement,
replaced
remembers
relevant
reinforce
rein
reg,
red,
recip
re-a
quality
qpm,
qod
qAM
q4h
pyelo
py
puff
pu
ps
protonix
protein,
propo
progression,
production,
product
prev
presumably
prepared
prep
predominantly
precipitated
preceding
powder
postero
porta
pontine
polys
pole
pnd
plastic
phys
person,
periventricular
percent
penicillin
peni
peaked
pay
patellar
passi
parietal
paraplegia
pancreas
palpation,
palpable,
pale
pace
oxycodone
oximetry
ox
overweight,
osteoporosis
orthopedic
originate
optho
ophthalm
operat
offer
object
nu
nt
noting
notes,
nondiagnostic
non-insulin-dependent
non-distended;
non-d
non-compliance
nightly
nice
neuros
neuropsychiatric
neural
nervous
neither
multifactorial
mult
muco
mor
mononitrate
monoc
moles,
moist,
mode
mmHg,
mmHg
ml
mile
mild,
microvascular
microalb
mg/d
mets
method
membranes,
medications:
measurement
measured
max
mastectomy
mari
man,
m/
lytes,
lympho
lovenox
located
liter
linezolid
likes
lightheaded
ligament
largely
laparoscopic
lacunar
knowledge
kn
keratos
keeping
juice
jo
je
jaundice,
itchy
is,
irregularly
ir
involve
intubation
intolera
interventions
interr
interim
interactive,
intense
integrillin
insomnia
insi
injury,
inhibit
infusion
infiltrati
infiltrates
infero
induration
induc
indu
indicated,
inde
increasingly
incidentally
impaired
immunosuppression
iliofemoral
ile
idiopathic
identifi
hypop
hypokinesis
hypert
hydra
hx,
hours,
hospitalizations
hospitalization,
hos
homocysteine
hoarseness,
hives
high-grade
hesitancy,
here,
hepatomegaly
hemicraniectomy
heartburn
hearing,
hea
haldol
grams
gout,
goals
glucose,
gentleman,
gene
gastrointestinal
gall
fun
frank
fragmin
fracture,
foul
fore
foci
floor,
fir
fill
fil
femur
femoral-
fem-
febrile
fat,
fascicular
family,
fall,
extraocular
extent
extensors
ext:
expressed
express
exo
examination:
exam-
evolv
euvolemic
esc
erosi
eo
enzymes,
ensure
enjoy
engineer
ended
empirically
email
eli
elected
effect,
edema;
ectopy
ears
e/o
dx'd
duplex
drugs:
drugs,
dri
dramatic
document:5-
doc
dobutamine
diverticular
diuretics
diseased
diplopia,
dilantin
differentiated
detect
describe
dentures
densit
deltoid
delight
defin
defi
decreasing
decon
decompensated
deb
daughter-in-law
cystoscopy,
cy
cups
cu
cross
criteria
cri
covered
count,
costovertebral
cooperative
contract
contra
consultant
consistently
consciousness
confirming
concurrent
concentric
concentration
concentrated
complaints,
compar
comorbidities
comm
collections
collateral
coated
coags
class
citrate
cit
cipro
cigs,
cholecystectomy
chew
chemo
chain
cephal
catch
cast
cared
cardiologist,
cardia
carbonate
capsulitis
cancer;
callus
calcific
bur
bruits;
bruise
bronchitis
bro
brings
breast,
brachiocephalic
bothers
bothered
blocker,
bil
bigeminy
biceps
behind
behavior
begins
beers/
bee
basically
bacterial
avid
au
attacks
att
atrium
asymmetr
assoc
assay
ass
asleep
arrives
arousable
arcus
antiplatelet
antibiotics,
ankles,
anicteric
anesthesia
allograft
alleviat
aggressively
afraid
aff
advise
admits
admissions
administration
adjuvant
active,
aceta
acceptable
abs
abnormality,
ablation
abdomen,
aVL,
a/p
Yun
Yu
You
Yan
YA
Xia
Xen
Xayarath
XII:
XI:
XA
X1
Wound
Wilson
Willow
Whitaker
Wheeling
WO
Vieira
Vet
Ventric
Vale
Valdez
Valcyte
VINCENT
VIII:
VII
VATS
V2,
V1-V
V1
Uses
Urba
Uphoff
Unl
Ultram
Ulloa,
UTI,
UT
UL
UA-ALB
UA,
Tn
Tib
Thro
Thinks
TRI
TR:
TOB:
TM's
TIME:
THOR
TEAM
TD:
TCD
T1
Syn
Sur
Summary
Subsequently
Str
Sta
Speci
Sparks
Sn
Smoked
Sm
Sho
Shar
Services
Serevent
Sen
Second
Sea
Scott
Scan
SY
SUPPER
SUCCINATE
STO
SPRAY)
SPE
SMI
SENT
S/
Ritalin
Ridge
Ric
Reve
Rese
Request
Remote
Remeron
Relative:
Rei
Reh
Regional
Recr
Read
Rapid
RRR;
RIC
RHF
RESPIRATORY
REFUSED
REFER
R/O
QU
QTY:180
QAM,
Q8H
Proximal
Proposed
Prophy
Procedure:
Procedure
Prevacid
Premedication:
Prado,
Pr
Possib
Pneumo
PVRs
PU
PTA,
PSA,
POL
PMI,
PERICARDI
PERC
P-
Oxygen
Overweight,
Oscar
Ordering
Oral
Ophthalmic
Operati
Opal
Oncologi
Off
Ode
Ocon
Obstructive
Obese
Oates
OM1
O2Sat
Noah
Nitropa
Nitrofurantoin
Nico
Neurop
Neurologically,
Neu
Nephrologist
Neb
Narvaez
NTND,
NT-proBNP
NSAIDS:
NPO:
NMS
NKDA
NEUROLOG
N/V/D
Muscul
Mur
Mu
Mor
Monitors:
Mini
Mevacor
Meta
Mat
Mason
Marital
Mari
March,
Mammo
Mallampatti
MULTIVITAMINS
MU
MPH
MP
METOPROLOL
MET
MEAN
MAI
MAC
M/
Lun
Lindsay
Light
Law
Late
Lane
Laminectomy
Lam
Lactic
LVEDP
LIPITOR
LC
Kelle
Kay
Kaufman
KCL
KAT
Julie
Jud
Jeff
Jay
Jain
JOHNSON,
Iv
Isaac
Intra
Inj
Infection
Inderal
Imm
Imaging
ISHIDA,
IG
IDDM
IA
I/VI
Hyaline
Ht:
House
Hopefully
Homan
Hoffman
HgA1C
Hg
Hematologic
Hemat
Height:
Height
Head/
Hayden
HU
HOSPITAL
HK
HFA
HEMOGLOBIN
HC
HAL
Groin
Gregg
Gram
Grace
Glucophage,
Gluc
Glen
Gillis
Ge
GU/
GLENN
GLARGINE)
GL
GI-
GI,
GFR
GC
Fre
Fournier&#8217;s
Fournier
Fluticasone
Flex
Finally,
Ferrar
Feet
Fay
Fallon
FO
FLU
FHV
FBS
External
Ext-
Exercises
Even
Ev
Eto
Estimated
Est
Es
Erythromycin
Epogen
Encounter:
Ear
EXTENDED
ELL
ELE
Dyspnea
Dyazide
Dunn
Dougherty
Dizziness
Diverticulitis
Diskus
Difficult
Dementia
Dela
Del
Deep
Dal
DP's
DMII,
DIP
DATE
D/
D-Dimer
D(
Crestor
Cort
Coordination
Coord:
Conver
Constitutional:
Constitutional
Conc
Complex
Comm
Combivent
Coc
Coated
Clopidogrel
Clinically
Clar
Christopher
Center,
Cells
Ceftriaxone
Catheterization
Cardiovascular:The
Camp
Cam
Called
CZI
CVP
CPKMB
CPAP,
CONVALESCENT
CONT
COMPLETED:
COMPL
COMMUNITY
CNI
CN:
CK,
CHLORIDE
CCA
CARB
CA:
CA,
C6
C5-6
Brookshire,
Brook
Bro
Bring
Bren
Breasts:
Bobb
Biopsy
Bili
Bibasilar
BiPAP
Being
Bea
Based
Baptist
BY
BU
BP,
BNH
BIR
Autologous
Attending/Nurse
Atlantic
Associate
Aspirin:
Asp
Arthur
Arimidex
Aragon
Appointments:
Appendectomy
Appearance:
Angi
Amplatzer
Ampicillin
Amiodarone
American
Ale
Age
Afib
Adeno
Acet
Abs
Abb
AVF,
ATR
AMONO-A
ALYMP-A
ALLERGIES/ADVERSE
AGE
AF,
AE
ADD
ACEi
ACEI
AAO
A1C,
?s
97.7
97.5
97.1
96,
95.
9/1
9)
85,
85%
80s
7:
73yo
70MG
7/28
7-30
7-
667
650
600/
6/9
6/7
6.9
6.6
55-
55%
50000
500/50
5/17/
47-year-old
4/1
4.00-5.20
3mm
375
37,
35.4
34.6
33.4
31.8
31.5
30MG,
30MG
301
30.6
30-100
30%,
29.1
28.6
28.0
270
27,
250MG
225
21:1
216
20m
2097
2088
2082,
2068
2061
203
200s
200MG,
20/
20-
20%
2.25
1MG
189
187
186
17:
172
171
170/8
17.5
165
162
160/90
160/7
160-1
150-
14.6
14.3
138/8
138,
136,
130/
13.5
12:3
12:1
12:00
126
124/
120-1
12/94
12/8
12/16/2070
12/01/2089
12/
12.0-16.0
119
110/70
11/07
11/02/2080
11.1
105/
104,
100.
10/29/
10/23/98
10.5
1/9
1/24/
1.5,
09/14/2066
08/31/20
07:
06/26/2152
05:3
05/25/2077
05/08/2066
04/28/2072
04,
03/15/51
03/05/2074
01/24/67
0.5-1
0.06
-p
-h
-continue
-Pr
-N
-I
-General
-Cath
-Ca
-B
-2
----will
----continue
-----
(was
(stopped
(so
(since
(sa
(or
(le
(i
(ext
(ca
(and
(al
(TE
(QU
(Nor
(NOTE)Drugs
(MI
(MET
(LE
(ISOSORBIDE
(H)04/13/2067
(FLUOXETINE
(ESOMEPRAZOLE)
(Detection
(DO
(CITALOPRAM)
(CH
(BU
(AS
(7-30)
(6)
(50
(30-100)
(3-15)
(200
(2.5MG
(11/
(10.3-13.2)
(1.
'9
'8
&lt;60
%EOS-A
%BASO-A
"w
"t
"r
"n
"f
"b
##\ut
##\u\u
##[
##ZOLE
##ZO
##XA
##WN
##VO
##VL
##USE
##URA
##UD
##UC
##Type:
##Total
##TU
##TONI
##TON
##TICA
##THO
##TEN
##T-
##Su
##SY
##STIN
##SB
##SAR
##Ri
##RNE
##REA
##RD
##RCA
##RAN
##R)
##Pt
##PSON
##PAR
##OXE
##OPHE
##ONI
##OB
##O:
##Neuro
##Neck
##Na
##NESS
##NAT
##MIBI
##MAR
##M:
##LL,
##K,
##Jan-
##ITA
##ILD
##ICI
##IAM
##HTN
##HL
##H:
##GN
##GG
##GEN
##Ext
##EX
##ENO
##DU
##DES
##D)
##CR
##COR
##COC
##CO2
##CAL
##BIT
##BIN
##AV
##ASTATIN
##ANT
##AMIN
##A1c
##9/8
##9)
##9(
##8/3
##8/207
##8/206
##8)
##7/7
##6/8
##6/2152
##6/2098
##6/209
##5/7
##5/64
##5/6
##5/21
##5-4
##5-2
##471
##400
##4/207
##4.
##325
##300
##3-3
##3(H)
##213
##21-
##209
##2082
##2/8
##2/6
##2/2
##140
##11/
##103
##1/207
##0:
##02/
##0(H)
##/week
##/vi
##/mo
##/li
##/g
##/dys
##/che
##/bl
##/CR
##/90
##/88
##/78
##/1.
##.L
##-wave
##-thr
##-st
##-on
##-moderate
##-do
##-cl
##-appearing
##-L
##-H
##-74
##-50
##-48
##-32
##-1.
##--t
##(a
##'t
##'ed
##'8
##&lt;
##&P
##&#8217;t
##%)
##",
##zza
##zz
##yz
##yto
##yth
##yoM
##yna
##ylo
##yllium
##ylenol
##yle
##ychomycosis
##yan
##xo
##xis
##xil
##x3,
##x)
##where
##well
##wed
##wea
##volog
##vil
##vie
##vat
##van
##uth
##uta
##urther
##urrently
##urit
##uria:
##urge
##urg
##uret
##ured
##urcation
##ung
##ulose
##ulos
##ulan
##uin
##uct
##ubi
##tz
##ty,
##tur
##tum
##tti
##trovent
##tral
##toti
##toria
##to-nose
##tit
##tion:
##till
##thyroid
##thromb
##thorax
##thoracic
##thet
##thesi
##therapy
##theless,
##terminate
##tel
##ted,
##tamin
##t-
##sts
##stri
##stor
##stica
##steron
##stasis
##ssive
##ssess
##ssed
##sop
##solv
##smu
##sma
##sino
##sens
##sely
##see
##scitation
##sb
##sation
##san
##ryngeal
##rte
##rtan
##rp
##row
##rov
##roti
##rotei
##ross
##room
##roni
##roge
##rmin
##rich
##rial
##rhythmia
##ret
##ressi
##regula
##refer
##ref
##reated
##reat
##reas
##rbital
##ray
##ras
##rap
##quired
##quir
##quine
##quez
##pu
##psi
##prol
##priate
##prazol
##pping
##pped
##pos
##pora
##popliteal
##pm,
##pl
##phor
##pendent
##pen
##pecti
##pati
##parin
##pare
##pal
##pack
##oz
##oxid
##oxa
##owe
##otic
##otha
##osporin
##osin
##osed
##orti
##oros
##orced
##orb
##orad
##opress
##opram
##oplas
##opium
##ophen
##opathic
##onsi
##onin
##ones
##onc
##onazole
##onan
##omp
##omn
##omit
##ologist
##olin
##olerance
##ogl
##ode
##ocytosis
##ocol
##ocl
##ocele
##ocardi
##ocaine
##oca
##nz
##ntra
##nton
##nse
##nou
##nos
##nitrate
##nie
##nid
##nia
##ngle
##nesia
##nephrine
##nell
##nco
##nber
##naz
##n-
##mpo
##mond
##molo
##moderate
##mme
##minute
##ming
##mide
##mia,
##mes
##merica
##megal
##med
##mbilic
##mbi
##max
##mate
##mas
##margin
##m.
##lytic
##lvi
##lve
##lusion
##lur
##loy
##lose
##lop
##lona
##logical
##lock
##llow
##llo
##ller
##llen
##live
##lity
##lini
##ling,
##limi
##light
##lex
##len
##lected
##lease
##lation
##lati
##lated
##last
##lain
##kalemia
##just
##ject
##izo
##izations
##ivity
##itr
##ison
##isin
##irm
##ira
##iot
##ions,
##inopril
##ings
##infarct
##inci
##inc
##inate
##imu
##ilt
##illary
##ify
##iel
##idal
##ictal
##ick
##ibut
##i-
##hyper
##hs
##hronic
##hrom
##hra
##hot
##hosp
##hon
##hin
##hill
##high
##hesi
##hes
##hero
##hem
##healing
##head
##ham,
##hage
##gue
##gree
##good
##gon
##gom
##gne
##gmat
##glycemic
##glan
##gil
##gie
##gic
##ges
##gene
##gate
##gat
##gas
##galy
##fun
##fts
##fre
##font-
##firm
##ficant
##fic
##ffi
##fen
##fect
##ext
##exp
##euro
##ette
##ett
##etin
##esse
##esi
##erty
##erre
##err
##ern
##erior
##eric
##erfor
##eps
##ended
##ency
##emi
##eling
##elin
##elia
##eive
##eh
##eez
##eer
##edu
##ede
##ection
##ecti
##ectasis
##eate
##eak
##eag
##ead
##e:
##e/
##e-
##dular
##due
##down
##dow
##dmit
##dio
##dex
##deni
##delin
##dar
##d:
##cut
##ctal
##cta
##cranial
##cra
##coag
##cker
##ck:
##chedule
##ched
##cera
##cent
##cell
##ccess
##cc/h
##cat
##cardiac
##calc
##c:
##burg
##bra
##borough
##bli
##bleed
##ble,
##bitu
##bio
##bdom
##basilar
##bact
##bac
##axin
##axi
##avicular
##ature
##atin
##atient
##ater
##asti
##arteri
##arri
##arl
##arin
##ardia
##arch
##anteri
##ans
##anjo
##angi
##aneous
##ando
##ancy
##amp;
##alth
##alin
##adiol
##adica
##adder
##ably
younger
yoM
y.o
x2,
wrist,
wrestl
wor
wishes
win
wh
wgt
were:
well-perfused;
wears
weakness/
we'll
watery
watching
washing
warfarin
walls
waking
wakes
w/s
vol
visualiz
violence
vesic
vertigo
vertical
vert
ventilat
variety
variable
valid
vague
uvula
uterine
ut
urge
urethral
ure
upto
uptake
upstrokes,
upright
updated
upcoming
up-t
unrev
unresponsive
unremarkable,
unp
units,
uni
unexplained
twi
trip
triggered
trigger
trif
trapezii
trap
transport
transmetatarsal
transiently
totally
tom
tob,
tob
titrating
titrated
tips
tin
tib
thyroid,
thrombocytopenia
thrills
three-vessel
thr
thi
thal
test:
terminate
telemetry
technical
tearful
taste
tar
tapping
tapering
tachypne
symptomatology
symmetrically
sweating,
swallowing
suspicion
suspension
surgery;
supraclavicular,
supplements
suicide
suggestion
suc
subt
subma
structural
stroke:
stride
street
strand
strain
store
stones
stiffness
sternum
sterile
standing,
sr
sprays
spontaneous
spond
splenomegaly
splenectomy
spend
spell
specialist
speaking,
spe
sounds;
sol
smooth,
smokes
smile
sling
skin,
size,
simpl
sim
silent
sigmoidoscopy
siblings,
shock
shingles
shaking
sh
services
seros
sept
sensation,
seni
sedation
scleroderma
sched
sal
safely
s1s2
ruling
ru
rtc
rounded
rigor
rifampin
rhin
reverse
retardation
resu
restricted
resected
res
represented
replac
repetition
repair,
remaining
relieve
relia
rejection
reinitiation
refusing
refills
refera
ref
ree
redo
redis
reconstitut
recons
reassured
ration
random
raises
quitting
qday
qd/
qPM
q.o.d.,
q.h.s.
push
pt&#8217;s
psychomotor
psychiatrist
provider
prosthesis
prompting
prominence
prolapse
project
profu
prod
processes
procedure:
press
prel
preg
pred,
precipitat
prece
preanesthetic
posteriorly
polysomnographic
police
poli
pleased
plain
placement,
pk
pil
piece
picture
pick
physically
photophobia,
pho
phenomen
pharynx
pharyngeal
ph
petechiae
person
persists
pepti
patho
parenchymal
parast
parameters
paradoxical
pancreatitis
palsy
palpate
palm
pall
painless
p.m.
overlying
overloaded
outflow
outer
otherwise,
ostium
organ
option
opt
oppo
ophthalmology
one-half
odynophagia
odo
occult
occlusion,
obviously
obtained,
ob
o/
nutritional
notified
noticing
notably
norvasc,
nontoxic
nonp
noninvasive
nond
noncompliant
nonco
non-specific
non-productive
non-displaced
nodes:
nod
nitroglycerine
nitrite
nev
neurontin
neurol
needing
nec
nebs
nd
nauseated
nausea/vomiting
nad
n/v,
multiply
ms,
movement,
motions
monitor,
mmm,
mix
miss
million
migraine,
midst
mgmt
mg/
mg)
meth
metatarsal
mes
mens
menopaus
meet
meds:
medication,
median
maybe
maternal
mat
massive
masses;
margins
manual
mani
manager
management,
main,
macro
lunch,
lumpectomy
lumbosacral
lots
long-term
localize
liver,
lis
lips
lingu
lift
levaquin
letting
lethargy,
len
lay
law
latter
laterally
lasts
land
laminectomy
labor
labetolol
kil
ki
kg
ketones
ju
ja
it,
irregularit
irr
intrao
intram
interven
intake,
inse
injected
initiated
init
inhibitors
inhale
infected
individual
indicates
indi
inci
inches
in,
imp
ii
icterus
hypoxia
hypovolemi
hypotonic
hypotension,
hypokinetic
hypodensit
hypercholesterolemia
hurt
humalog
hu
house,
hor
hoping
homogeneous
historian
hips,
high,
hepatojugular
hemorrhage,
hemodynamic
hematoma,
hematolog
heels
heaviness
heavily
heave
health,
hcl
haz
gyn
gums
guide
guiac
gro
grandson
grafts
gradual
goiter
gm/dl
gluco
glu
gland
gi
gener
gem
gaze
gastroenteritis
gastritis
gam
future,
fossa
forget
forg
foramin
foley
fluids,
fluid,
fluc
flat;
flap
first-degree
finished
finds
fibromyalgia,
fibroids
fibr
fiber
fevers/chills,
ferritin,
fem
fal
fa
f.
eyelid
extend
explanation
expe
expansi
excess
exacerbat
ex-
evening,
ev
et
establish
est
eschar
erythromycin
erythema;
equivocal
entered
endocarditis
endarterectomy
emphysema
emesis
elevation,
element
electrocardiogram,
elbows
effusion,
eco
eating,
ears,
ear,
ea
dysp
dyslipidemia,
duoden
drug-eluting
dp
dox
dose,
doctors
div
diuresis,
distr
distinct
distention,
distension
distended
distant,
distance
displacement
disorders,
direct
diplopia
dil
digital
dietician
dialysis,
diagnoses
detecti
desc
desaturat
des
dermatolog
dermatitis
depres
depakote
dental
delirium
degeneration
decisions
death,
dar
daily/
d/c,
cyto
cystic
cycl
cushingoid
crestor
creation
cram
counsel
cou
correspond
correlati
corona
coordinat
conversant,
contraindicat
contour
content
contacts,
constitutional
consists
considerabl
congestion,
confusion,
conduit
comprehension
completion
communicate
comminuted
comment
combined
colon,
collection,
colic
colectomy
cognitive
cog
clotting
claims
cholecystectomy,
chi
characteri
char
cerv
cent
celexa
cau
carries
cardiomegaly,
cardiog
carcinoma,
caps
cannula
candy
candida
canals
calves
caliber
calcul
caffeine
build
bruising
breasts
bradycardic
brachioradialis,
brac
box
bou
bott
blocks
blind,
ble
bili
bif
benzo
bene
believed
beers
bedtime,
beds
becoming
batt
bar
balance,
bacteria
backward
bP
awakenings
auto
attend
attempting
atr
atherosclerosis
athero
ataxia,
assume
asking
arthralgia
arthr
arrest,
arr
argue
approx
appointments
anyw
antidepressants
ankle,
and,
anastomosis
analysis
amo
amio
ambulatory
ambulation
ambulating
alpha
alleviated
alive
alcoholic
albuterol,
ai
ahead
ago-
agitation
aggr
affecting
adjusting
adherence
adequately
action
achy
achieve
abuse,
aVF
\u\u\u\u
Zos
Zol
Zelnorm
ZO
Yours
Yount
Yon
Yes
Year
Xzavior
Xl)
Xio
Xanders,
Xander
Wytheville
Wri
Worke
Work:
Wond
Wilkins
Wid
Whitney
Well-healed
Weld
Web
Waverly
Wall
WOOD
WNL,
WN
WHEN
WD,
WBCs
W.
Vonda
VoiceJob
Vir
Vig
Vert
Vernon
Vent
Ve
Vallejo
Valium
VISIT:
VII:
VAS
VAC
V5,
V1-V2
V1-3
Us
Urologic:
Urinary:
Uriah
Urania
Uncontrolled
Umbilical
URIN
UF
UAS-MUC
UA-Turbidity
UA-Color
Turk
Tuesday
Tub
Tria
Tre
Trav
Tramadol
Tr
Ton
Tolerating
Tmax
Tinsley
Thoracic
Tho
Thanks
Tetracycline
Testing
Tele
Techni
Taxus
Tapia
Tan
Taking
Tablets)
TYPE
TRIMETHOPRIM/SULFAMETHOXAZOLE
TOX
TOTAL
TKR
TID,
THESE
THAN
TER
T1N0
Syst
Synthroid,
Symmetrical
Sym
Sy
Sus
Surgeon
Super
Studies
Stu
Stroke
Sto
Steve
Stephenson
Stati
Spring
Sotalol
Sometimes
Soc
Sigmoidoscopy
She's
Sh
Service:
Serum
Ser
Sensation:
Sens:
Sat:
Sali
SYRINGE
SUBJECTIVE:
STRIPS
STRE
STEPHEN
STEELE,
SSI
SOU
SKIN
SHE
SESTA
SEN
S1/S2,
Rutledge,
Russell,
Russell
Rotator
Rose
Rosa
Rock
Rho
Rheum
Reveals
Retina
Renal/Genitourinary:
Ren
Remarkabl
Rem
Regular,
Refills:0
Referral
Recommended
Recommend
Reassessment
Ray
Rash
Rai
Radiology:
RVR
RVH
RUL
RU
RELEASE
RECTAL:
RBBB,
RAS
RADIOLOGICAL
RAD
RACH
RA,
R/
Quinley
Quiana
Qu
QUINTO
QTY:
QHS,
Q-wave
Pulmonary:
Prox
Procedures
Preoperative
Pra
Popliteal
Pop
Poorly
Plu
Pio
Phil
Pha
Peru
Pertinent
Perform
Pending
Pelvic
Pedal
Patrick
Pana
Palp
Pala
PWT
PVH
PUFFS
PT/OT
PT/
PREGABALIN
PPM
PMH/
PM,
PINELLAS
PICC
PGY-
PFO,
PERL
PCN,
PATRICIA
PATIENT
PAT
PAD
P2
P.
Oxy
Ox
Overnight
Orthopedic
Ortho
Ort
Oreilly
Onetouch
Occu
OTHER
OSM
ORG
ONE
OINT
OCASIO,
OBRYAN,
OA,
Nun
Notes:
Nortriptyline
Nev
Neutrophils
Naproxen
Nap
NYSH
NTG,
NT-BNP
NSTEMI,
NSCLC
NSAIDs
NORTH
NOD
NIDDM,
NIDDM
NICHOLAS
NG
NEUT
NEUROLOGIC:
NEBULIZER
NAP
Muscle
Multivitamin
Multi
Moves
Mot
Mit
Missouri
Mis
Mildred
Meto
Metha
Metformin,
Metabolic
Medroxyprogesterone
McC
Mays
Mas
Marshall
Maint
MVA
MSK
MRSA
MONO
MMP
MMM
MIX
MIC-SED
MHCT
MDI
MCP
MAY
MARY
MART
MALEATE
MAJOR
Lympho
Lymphatics:
Lup
Lucille
Los
Lor
Location:
Lloyd
Lisbon
Leuk
Leroy
Learned
Lauren
Lake
Lacey
Lac
LVIDd
LVI
LUQ
LUNG:
LUL
LIVE
LFTs:
LEVO
L/R
Ky
Kno
Klo
Kin
Ken
Keep
Keat
Kcl
KR
K-Dur
Jugular
Juan
Jos
Jon
Jar
JVP,
Ischemia
Ip
Interstitial
Intermittent
Intact
Ini
Inguinal
Ing
Information
Infant
Inde
Ima
Im
Ili
Id
Ickes
IX,X:
IVS
IVC
IVB
IU
INS
INPATIENT
INHALATION
IIIB
II,III
IBUPROFEN
I:
I/O
I-II
Hytrin
Hydro
Hou
Hospitalized
Hopefully,
Homo
Hol
Hodgkins
Hobb
Hiatal
HgbA1C
Hen
Heme
Haynes
Hart,
HYDROCHLOROTHIAZIDE
HT
HSV
HG
HF
HEENT,
HEART
HCO3
HCM
HBPM
HAVE
HARDY,
H/
Gui
Gu
Gly
Glargine
Gets
Geo
Gastroparesis
Gastrointestinal
Gastr
Gab
GRANITE
GRA
GMH
GLUCONATE
GLU-POC
GI/Abdomen:
GERD:
GEL
Fu
Fri
Fraser,
France
Fra
Fos
Fon
Fish
Fioricet
Findings
Fhx
Fever
Fel
Fax
Falls
Facial
FUROSEMIDE
FT
FRE
FRANK
FIO2
FHx:
FERR
Exposure
Excedrin
Ever
Eu
Etiology
Esop
Eric
Eri
Ep
English
Endoc
End
Encouraged
Electrolytes
Electr
Elderly
Elavil
Edwin
Educare-Pullman
Educare-Fargo
Eddie
Ec
Eat
Each
EXTREM
ESR,
EPO
ENT:Patient's
ENT
ENDOCRIN
EM
ELROD,
ELI
Dul
Duc
Drinks
Dolan
Dip
Dila
Dickinson
Dic
Diarrhea
Diamox
Diag
Der
Debra
Darvocet
DWI
DM1
DLCO
DLBCL
DIS
DIRECTED
DIE
DIAGNOSTIC
DIABETES
DIA
D/c
Craft,
Cra
Consultation
Consent
Compli
Complaint
Comments:
Comment
Colchicine
Coa
Cholecystectomy
Che
Cerebrovascular
Central
Cathe
Cardizem
CT/CT
CONSTI
COMPLEX
COMPARISON:
COM
CHR
CC/ID:
CAT
CANCER
CAD;
C/C/E,
C-spine
Bypass
Bryan
Brother:
Brian
Breasts
Born
Bla
Bird
Bic
Bau
Barrett's
Bangkok,
Ban
Bai
BackJob
BS;soft
BRO
BMS
BILI
BD
BCC
B-
Axid
Awa
Avandia,
Auto,
Arroyo
Area
Are
Archi
Appro
Appetite
Apparently,
Antibiotic
Ante
Ano
Annual
Angiography
Anesthetic:
Ambulat
Alternate
Alprazolam
Allergy:
Allen
Alcohol:
African
Af
Advised
Advance
Adenosine-
Addi
Act
AU
ASPIRIN
APAP
ANTI-COAG
ALLERG
ADA
ACETYLSALICYLIC
ACETA
AAOX3,
A&Ox3
A&
99.2
98.7
98.6,
98.5
97.8
97.3
96.5
911
9.9
80MG
8/8
8/10/83
8.2
8.1
8-
77-year-old
75%
7/9
7-11mm)
6m
68-
67-year-old
63,
60-400
60-
60%,
6.0-8.0
5x
59%
500/50mcg
50,
5/31/
5/0
5.9
5,
46-year-old
450
45-
44.
40s
40%,
4/63
4.2,
4-
35.7
35,
34.3
33.6
33.2
33.1
32.8
32.7
32.4
32.3
30.7
30.5
3/67
3/27
3.9,
3.75
3.125
3-6
3-10
2mm
2g
2d
29.4
28.9
28.1
26.2
250-
25/
241
24.6
235
227
217
2091
2077
2067
204
201
2000
20-2
2/9
2/7
2/4
1MG,
199
198
195
185
184
18-
17:12
170/
16:
167
163
159
152/7
152/
150MG
150/90
150,
15%
148/6
142/6
142/
140/82
140-1
14.9
14.2
137,
136/
135/
132/
130-1
13.4
13-
12:09
122/7
120/7
12/17/
12/15/2105
12/14/2
12/12/
12/10
12/05/
12.1
11:33
11:3
11:0
117/
11/73
11/25/2115
11/23/83
11.9
11.4
102/
101.
100/50
100-1
100,000
10/28/2069
10/23
10/01/
10.4
10.3
10.1
10)
1/23/
1/23
1/21/
1.8,
1.5-
1.4,
1.01
09/30/
09/12/61
09/04/2097
09-
08/02/92
08/0
07/25/
07/11/2086
06/26/64
06,
05/02/2086
04/07/2113
04/0
03/25/2097
03/12/2066
03/02/2073
03/
02/25/64
02/23/2077
02/14/94
02/14/24
01/3
01/26/20
01/18/
01/13/2072
01/10/
01/07/
0/
0.625
0.5mg
0.5MG,
0.4,
0.22
0.2,
0.14
0.125MG
0.0-3.5
0-2,
0,
.5
.0
-right
-o
-no
-cons
-NP
-HTN
-EKG
-Dia
-Ad
-1/2
--a
--Will
**The
(up
(pos
(ne
(mo
(ma
(l
(from
(dia
(de
(d
(cou
(con
(chronic
(be
(ZO
(U
(TRICOR)
(TRIAM
(Senna
(SU
(SG
(R)
(PRAVASTATIN)
(NE
(LYRICA
(KCL
(In
(IPRATROPIUM
(HUMAN)
(GLYBURIDE
(FOL
(EXTENDED
(CONJUGATED
(CELECOXIB)
(CE
(CARBAMAZEPINE)
(AC
(60-400)
(6/
(4.
(325(65)MG
(32
(250
(22.1-34.0)
(209
(17
(14
(10/
(1/
(01/10/49
(*)0
&nbsp;h
&nbsp;N
&lt;1
&gt;10
#H
#45
#120
#.
"o
"m
##\u\u\u\u
##ZOLE)
##ZIDE
##ZEPAM
##ZED
##YR
##YLEN
##Y:
##XIN
##Will
##WP
##WD
##Vital
##Ve
##VT
##VIN
##V:
##UM:
##ULO
##ULAR
##TONE
##TOH
##TING
##TIA
##THY
##TC
##Sa
##STRO
##SSE
##SS,
##SR
##SM
##SIS
##S-
##Res
##Rec
##RSON
##ROPIUM
##ROP
##ROL
##ROBERT
##RK
##RGER,
##QUI
##QUEZ,
##Pr
##Po
##Pl
##Pe
##PV
##PRIL
##PION
##PINE
##PHA
##Oc
##ORA
##OO
##OLY
##OLL
##OH
##OG
##OD
##OCI
##Neck:
##NTIN
##NTE
##NSION
##NP
##NG,
##NE)
##NDER
##NAL
##MIC
##MET
##MD
##MAN
##MA,
##LOR
##LME
##LIA
##LAV
##L:
##KLE
##KIN
##KI
##JO
##IS,
##INI
##INE)
##ICA
##IB
##IAL
##Hx
##HOL
##HO
##HLORO
##HD
##H#
##GRE
##GO
##GIN
##GER
##FT
##FLOXACIN
##FIN
##FI
##FFE
##F:
##EZ,
##ETI
##EST
##ESA
##ERS
##ELE
##ECTI
##Dr
##Do
##Dia
##Da
##DN
##DINE
##DG
##DD
##Cou
##Con
##Change
##Ch
##CX
##COD
##Br
##BRO
##BO
##BID
##BER
##BE
##As
##Abdom
##AY
##ATION:
##ATED
##ASO
##AP
##ANA,
##AIN
##AI
##AEL
##A/
##:P
##:2
##9/7
##9/208
##8/208
##70,
##7/209
##7/2
##7-8
##69,
##6/2067
##6/2
##6/1
##6/0
##6/
##6-
##528
##47
##45)
##4/7
##4-1
##31/
##3/7
##3/21
##3/208
##3/2077
##3/206
##2060
##2/03/2081
##2(
##1c
##1;
##1:
##123
##120
##12-
##11/12/2082
##107
##1/95
##1/64
##1/3
##1/20
##0s
##06/22/2068
##06/2
##01/26/2098
##01/2
##0/8
##0/6
##0/20
##0's
##/pro
##/pelvis
##/ma
##/le
##/l
##/j
##/illic
##/he
##/dia
##/cold
##/ch
##/br
##/benefit
##/apical
##/89
##/82
##/58
##/30
##/206
##/19
##/18
##/13
##.6/14/78:
##.-
##.(
##.&#8221;
##-speaking
##-old
##-of
##-m
##-lo
##-induced
##-g
##-ex
##-coated
##-co
##-check
##-ac
##-O
##-Nuel
##-MIBI
##-Jul-
##-G
##-36
##-208
##-200
##--c
##*#)
##))
##'ll
##'S
##&#8217;
###L
##zan
##yrica
##ypical
##yoF
##ymou
##yla
##yel
##ycli
##ych
##yce
##y/
##y-
##xyl
##xyc
##xtr
##xie
##xica
##xation
##wt
##wn,
##whe
##wh
##weight
##weats
##war
##vula
##void
##visual
##visor
##viewed
##vid
##vet
##vertic
##verted
##verag
##vem
##vedilol
##vd
##vax
##vac
##utting
##utic
##uti
##ustr
##uspid
##usa
##ursi
##urren
##urin
##ures
##unit
##uni
##unct
##umin
##uls
##ulm
##ula
##ughl
##uff
##uen
##udid
##udate
##uction
##ubated
##uation
##uate
##u)
##ty:
##tx
##two
##tussin
##tunate
##tul
##tual
##tten
##ttage
##trip
##triol
##tric
##tribut
##trac
##toxic
##town
##tosis
##toprazole
##tonin
##toc
##tiv
##titis
##tis,
##tics
##thyroxine
##thor
##than
##tfo
##text-align:
##terv
##terna
##terin
##teric
##tenti
##tensive
##tend
##tazol
##tazo
##taz
##tally
##tairs
##tac
##surgery
##sur
##struct
##strat
##sting
##stick
##stern
##stere
##steo
##sten
##stals
##st:
##spiratory
##sph
##spec
##sor
##sn
##smoker,
##sition
##sided
##shin
##she
##sey
##ser
##sep
##sent
##sen,
##se,
##scular
##sca
##sane
##sali
##sal
##s.
##ryn
##ry,
##rtis
##rtion
##rti
##rsu
##rra
##rpine
##ronta
##ronate
##ronary
##roc
##roba
##rnal
##rmac
##riu
##rition
##ript
##rip
##ringe
##rima
##rig
##riform
##ride
##rg
##rf
##revi
##retion
##rescen
##rence
##ren,
##rema
##reg
##raz
##rated
##ranol
##rande
##rand
##ramine
##quel
##qd
##pula
##psy
##pson
##pri
##pram
##ppro
##ppi
##pop
##pon
##pol
##point
##pn
##plex
##plast
##pitu
##pita
##pir
##pid
##phrenia
##phr
##phil
##phen
##phag
##peti
##pens
##pathy
##par
##pani
##pamine
##oxi
##oxetine
##ovitis
##ovi
##ounce
##oun
##otu
##ott
##other
##ota
##osu
##ossi
##oscopi
##os,
##ortic
##orp
##orous
##orie
##oriati
##oretic
##ored
##ordin
##orated
##orat
##opri
##ophobi
##opha
##opera
##oped
##opausal
##oon
##ook
##ony
##onic
##onary
##on:
##ommend
##omina
##omi
##omed
##ollow
##oll
##olid
##olence
##olax
##oic
##ogy
##ogat
##oft
##odrine
##oda
##ocyte
##ociat
##ocial
##oci
##oce
##occu
##oag
##o/
##nut
##nus
##nuri
##nue
##ntit
##nting
##nsor
##nsa
##nous
##nose-finger
##nologi
##nofibrate
##nna
##nke
##ning,
##ngl
##neum
##ner,
##nephrosis
##neous
##ndu
##ndro
##ncer
##natr
##naci
##na,
##n/
##myelitis
##mur
##mpli
##moni
##mona
##mmary
##mmHg,
##mitte
##mip
##minis
##minat
##mg/
##mfi
##mf
##metri
##meru
##ments
##mc
##mbe
##mazep
##maker
##m2
##lva
##lum
##luded
##lton
##lta
##lott
##loping
##lono
##lmet
##lme
##lling
##llic
##ll,
##lita
##lipid
##lines
##lig
##lid
##lfa
##lexi
##levat
##less,
##lerat
##lepti
##left
##lee
##lear
##lde
##lasi
##lam
##lable
##known
##kne
##kle
##kg
##kfast
##kes
##ker,
##ken
##jas
##izing
##itl
##itivit
##itic
##istr
##ister
##istent
##istended
##iste
##ision
##irc
##irati
##ipt
##ipl
##ipita
##ipi
##ioperoneal
##iopath
##insulin
##inson
##inos
##ingly
##ing/
##ines
##ine,
##inct
##increas
##inati
##imm
##imet
##illin
##ility
##ilitati
##ilia
##ild
##ignant
##igi
##igh
##iff
##iew
##ientation
##ien
##idin
##icteric
##ico
##icillin
##icia
##ications
##ication
##ically
##ias,
##hythm
##hypo
##hydrated
##hydrat
##hydra
##hos
##hor
##hev
##het
##hera
##hepa
##headedness
##hav
##has
##hagi
##gulation
##gren
##grap
##graf
##go,
##gnos
##gno
##give
##gis
##gina
##gies
##gia
##ggs
##gge
##genital
##gener
##gena
##ge,
##frequen
##formed
##fol
##fl
##fin
##field,
##fici
##fication
##fib
##ffered
##ffect
##fet
##ferr
##fat
##family
##face
##eur
##ethylene
##eteri
##et,
##esthesias
##ession
##essa
##erv
##erson
##ers,
##erlin
##erf
##erd
##erated
##eran
##equa
##eq
##epta
##epr
##epin
##eper
##ente
##entati
##ent,
##enera
##ened
##endoc
##ending
##en,
##empt
##emp
##eminal
##embolic
##emb
##emat
##emal
##elvi
##elt
##ein
##egu
##eel
##edia
##edem
##ecologi
##eck
##ecia
##ech
##ebr
##eatening
##eat
##ean
##eal
##dynamic
##ducti
##dua
##ds,
##drocortisone
##dran
##domina
##dniso
##dition
##dir
##diology
##dim
##didi
##dication
##dicated
##dder
##dat
##dap
##cytosis
##cyt
##cyl
##cycl
##cuss
##current
##ctu
##ctor
##ctone
##ctic
##cs
##crt
##crit
##cribe
##crease
##crea
##cour
##cough/
##cort
##cophenolate
##copal
##cont
##cona
##cocc
##coba
##cm,
##clovir
##clear
##cle
##cket
##cita
##cillin
##cil
##chro
##cholest
##chl
##check
##ch,
##ception
##cepti
##cept
##cemia
##cca
##cation
##cast
##carri
##care
##cap
##calcif
##cai
##bv
##butrin
##br
##bp
##bos
##border
##bora
##blocker
##bl
##bital
##bism
##besartan
##bepoetin
##bed
##bea
##bble
##bas
##b/
##b,
##azide
##avi
##ava
##atori
##ating,
##atic
##athy,
##athan
##asis,
##ascular
##asa
##arthri
##arter
##arr
##arily
##arg
##arditis
##ardi
##aph
##antine
##anth
##angeal
##ang
##amydia
##amina
##ami
##ame
##alm
##alk
##ality
##algi
##alate
##al:
##aic
##aged
##aft
##admission
##actr
##acillin
##acia
##aceous
##abdo
##a:
##a/
##a.
zestril
ze
zantac
xanth
x-ray,
wraps
wr
worst
worsens
wis
wire
winter
whole
wheeze
well-perfused
well-controlled
weigh
weak,
waxe
ward
wane
wan
wake
w/p
vulva
volumes
voiding
vit
verif
verapamil,
ventriculo
velocity
vault
varicosities,
var
vancomycin,
v.
utiliz
uro
urine,
urin
uri
urgently
ups
unsure
unsuccessful
unrelated
uno
uninter
uneventful
unde
unaware
u/a
turgor,
tsp
troponin,
troch
triage
transmission
transl
transfuse
transcription
trach
toxi
topically
toenail
toa
tissue,
tinnitus
tighten
tick
tibial/
tibia
thrombus,
thoughts
tho
thiamine
thereafter
ther
thanks
teeth
technician
techn
teaspoon
task
tap
tal
tact
tac
sy
sweets,
sweets
sweat
swe
swa
susceptibility
supra
suppositor
suppl
superi
summari
sulf
suit
sugars,
sufficient
suffering
suff
subtotal
substitut
substantially
subside
subd
subc
stuttering
student
structur
story
stimul
stiff
steroids,
ster
steadily
ste
stati
stands
stance
stabiliz
stability
stab
squeez
spring,
spots
spiro
spinous
spinning
sphincter
spect
speckled
specia
sot
sort
sons,
son's
somnolent
sometime
solut
social,
snor
smelling
slip
sleeping,
ski
skelet
site,
sisters,
sister,
sin
simultaneous
sil
signficiant
showe
shoulders,
sheaths
sha
sequence
sentences,
semantic
sele
sediment
sedate
secur
secret
sciatic
schizophrenia,
schizo
scarr
scan,
save
saturations
sarcoid
saline
sales
sad
sacr
rush
rupture
rrr
ribs
rib
rheumatologi
revi
revasculari
retropu
retrieva
retraction
retr
retire
retin
retic
resumed
result,
restrict
restless
responses
reside
reschedule
reproduc
representing
renewed
remov
remo
remind
remarkably
rem
relo
relaxa
relati
rela
rei
regist
regained
refu
refractory
reflects
refilled
reducing
recrudesce
recorded
recognize
recognition
reci
rechecked
reali
real
readmi
re-s
re-evaluate
ranging
range,
radiologist
radiograph
radiculop
radiate
radi
quinine
questionable
quadriceps
qday;
qac
q6h
q1
q.h.s.,
punct
pull
pul
ptosis,
psychosis
pseudoaneurysm
psa
pruritus
pru
provo
protru
proton
prostatectomy
pros
pron
promises
prol
process,
proceeding
procedures,
procedure,
proc
prior,
presyncope,
presyncope
presyncopal
presse
president
presentation,
prefilled
prefers
predominan
preca
prandial
pot
postp
post-prandial
post-c
possib
positional
porc
poor,
polyneuropathy
polyd
pneumothorax
pmh
plan,
pinprick
pillow
pigment
phosph
phlegm
pheres
phase
pha
pg/rbc
perspective,
personality
periu
peritoneal
perio
perimenopaus
people
penicillin,
pc
patella
pate
patches
pat
paste
parathyroid
paral
pan-
palpated
pain/s
pain-
pack-y
pacer
pRBC
oxygen,
oxy
oxide
overwhelmed
overl
ovale
outweigh
outline
outl
osteoporosis,
orthotics
organs
organize
organisms
orange
optimize
opted
ophth
ooz
one-
oncologi
onc
on:
oliv
older
office,
ocul
occasions,
occasion
occa
obstructing
obser
obscure
nystatin
nuc
novolog
nostril
normalize
nonre
nonproductive
nonobstructi
non-s
non-re
non-radi
non-p
non-o
non-icteric
non-Q
nodule,
nitropaste
nitrate
nic
niaspan
ni
ng
nexium
newly
neutrop
neuro:
neu
nephr
negatives
negative;
necessit
nas
name:
nail
n/v/
n/
myop
myalgias,
myalgia
muscles,
mus
multivitamins,
motivat
mornings
month's
monofilament
moment
moles
modi
modest
mobili
mobi
miral
mir
minimize
mini
milk
military
mild-to-
mil/cm
microalbuminuria
microalbumin/cr
microalb/
mg;
mg/L
metolazone
methyl
metal
mer
meq/L
meq
meniscal
memb
melanoma
medic
medi
meantime
mastoid
marriage,
mark
marg
manifestations
mammograph
malleolus
mala
mag
mUncle
m/r/g
lytic
lymphoma,
ly
lump
low,
lovastatin
locally
lithium
liquids
liquid
lipoprotein
lipo
lipase
lines
line,
light-headed
light,
lifestyle
lfts
leuk
letharg
legally
left;
leaving
lean
language,
language
lactulose
lac
labs,
lab,
kypho
knee,
kit
kin
jv
jump
iv,
irrigat
irregular,
involuntary
inversion
intubated,
intraventricular
intra-a
inters
interpret
interosse
intermittent,
intermediate
interco
integr
inte
int
insulin-requiring
instru
instituti
inspection
insomnia,
insid
ino
inject
inj
inhibitor,
inhalers
inha
infr
infarctions
indigestion,
indigestion
ind
incon
incisions
improvement,
impr
implant
impl
impe
immunosuppres
immuno
immunization
illness,
ileostomy
id
hypoventilation
hypoglycemics
hypertrophy,
hypers
hyperintensity
hyperechoic
hypercoagu
hyperbaric
hyperaldo
hydrox
hydrocephalus
hydroc
hormone
hoo
homocysteine,
holter
hol
hoarse
hips
highly
high-r
high-
hg
heterogene
herniation
herniated
hepatic
heparinized
hep
hemorrhoid
hemoptysis
hemoc
hemiparesis
hemiarthroplasty
hematemesis,
hematem
heel-to-
harvest
happens
happening
hallucinat
hallu
halfway
gum
grow
grip
granulomat
granulat
granul
grandchild
graft,
gly
glucosamine
gluconate
glucomet
glomerulo
glc
gl
ger
gentle
gentamicin
gent
genital
general:
gen
gat
gastroparesis,
gastrohepatic
ganglia
gan
ga
fxn
fruits
fre
fra
fourth
forehead
foods
follow-up,
flushing
flush
fluoxetine
fluctuance
fle
flare,
fitness
fistulogram
fissure
fish
filled
fifth
femor
fast
fasci
falls,
falling
failure:
faci
facet
face,
exudates,
exudate;
exudate,
extension,
exte
explorat
expand
exh
exert
exercised
excuse
exactly
exacerbating
events,
eu
etiology,
estimate
established
esoph
erythro
errors;
equi
entr
enroll
enlarg
endorses
endometri
encephal
enalapril
employe
emphasized
emesis,
emergently
emerge
elicit
electric
ela
effic
edge
echocardiograph
eccentric
e-
dystrophy
dyslipidemia
dyskinesia
dro
drift
draining
drainage,
dra
doses,
dorsum
dopplers
donor
doesn
documentation,
document:7-
document:4-
document
dn
divorce
divi
distortion
distally
disorders
disor
diseases
discre
discontinuation
disability
directi
dimin
dim
difference
dieti
die
didn
dicta
diclox
diari
dialyze
deviation,
deterioration
deter
detach
det
destructi
describing
deplet
depending
deliver
deg
deformities
defects
defect,
deepe
decubitus
decade
debridements
dd
dc
daughter's
damage
d-dimer
cysto
cutting
ctr
crust
cru
crescendo
creatinine,
crani
cramps,
cousin
costal
cortiso
cortic
corneal
conversation
contribut
contractions
continuation
contin
contacts
constr
constellation
consequen
connective
conju
confirms
conduct
concerns,
concentra
compute
compulsive
comprehensive
complications,
complication
completing
compe
compa
community
communicati
comfortably
comb
coma
colore
colonoscopy,
colo
colle
collateralization
col
coc
coarse
coa
clum
clu
clip
clin
cli
clarif
circumferen
circu
ci
cholesterol-
choices
chest:
chemotherapy,
chemoradiation
chemistr
che
changes;
chan
chamber
cerumen
cert
cereb
cellulitis,
cellcept
cava
cautio
case,
carotids,
caretaker
caregiver
cardiome
carbohydrates
capsul
caloric
calf,
c/
busi
bursa
burs
bun
buff
brother,
bronchodilator
bronchiectasis,
bronchi
broke
brid
bra
bpm,
bouts
bor
boots
boot
booster
blood:
bladder,
bla
birth
bip
bioprosthe
biological
bing
bid;
bicarb
bell
belching
before,
beer
beat
bearing
beach
basi
bare-metal
bag
bactrim
b12
azithro
axilla,
awaken
auditory
attributable
attr
attenuation
attach
atraumatic;
atheroembolic
ataxia
asymptomatic,
asymmetry,
aspects
asc
asa,
articulat
arteriov
arteries,
arter
arrythmia
aris
archi
approximate
aortoiliac
aorto-iliac
antihypertensives
anticoag
anticipati
anticipate
antib
anteroapical
antec
ante
ankle/brachial
angiographic
angiogram,
ang
aneurysmal
aneurysm,
anesthe
anemic
altera
alter
allopurinol
alcoholism
alb
akine
agreement
ago;
ago),
agitated,
aggressive,
ages
again,
afterload
af
advice
adva
adv
adopt
administered
adhesive
adhere
adeno
addressing
addressed
addendum
ada
acuity
actinic
acid,
aching
achieved
achi
accura
accompany
accommodat
accom
acc
absolute
abruptly
abrasion
abductor
a/
a.m.,
a)
\u\u\u\u\u\u\u\u\u\u\u\u
\u\u\u\u\u
[lc855]
[Re
[3]
[2],
[2]
Zolpidem
Zastrow
Zantac,
ZESTRIL
Z.
Youssef
Your
Youn
York
Yesterday
Yeomans
Yea
Yar
Yam
Yacob
YC
Xenia
Xaya
Xanthos,
Xanax
XR:
Workup
Workman,
Workman
Wo
Wilhelm
Wife,
Wha
Wendy
Well-developed,
Well-appearing
Well-
Welch,
Week
Webb
Walt
WWP
WNL
WMMC
WMC
WIll
WHIT
WF
WERE
WD
WCH
WB
WALL
WAL
Vuong
Vol
Vo
Views
Vidal
Ves
Vermil
Ventura,
Vel
Veda
Vasotec
Valve
Val
Vag
Va
VPB
VER
VB
VALLEY
VALENTIN
V4-V6
V3-
V2-V3
V1,
Using
Urqui
Uribe
Ureth
Unfortunat
Under
Umstead,
Umberto
Uly
Uecker
Ub
UV
URIBE,
ULTRA
ULI
UE/LE
UBASEX
UAS-C
UA:
Tympanic
Try
Trop
Trimethoprim/Sulfamethoxazole
Trig
Triamterene
Treated
Transpo
Transfus
Trans
Townsend
Touch
Topical
Tony
Todd
Titonka
Tin
Throat
Thor
Thin
Teresa
Tend
Tc
Target
Tar
Tandem
Tamworth
Tal
Tachy
Tac
TUR
TTP
TRICUSPID
TIMI
TIAs,
THYRO
THO
TBB
T7
T-waves
Systems
Systemic
Syndrome
Syncope
Sylvester,
Switch
Swe
Susan
Sup
Sunday,
Suggest
Sug
Subse
Student
Stra
Stanl
Stand
Springs
Spo
Spiriva
Speech/
Spanish
Social:
Slight
Skin:The
Sit
Sinuses
Single,
Side
Sick
Siblings:
Shady
Sep
Sec
Seb
Sco
Sclera
Schuyler,
Schedule
Scale:
Salvation
SVG-
SUSPE
SURGERY
STDs
SSH
SR,
SMEAR
SLE,
SIG
SHA
SEMI
SEE
SECONDARY
SAMPLE
S2;
S1/S2
Rutl
Ruth
Ruba
Roberta
Riv
Rhodes
Retinopathy
Results0
Resu
Respirations
Resol
Res
Replete
Renal:
Remain
Refuse
Reflex:
Refills:4
Refills:2
Refills:
Recommendation
Rayne,
Ranexa
Ran
Radia
Radi
Rad
RUS
RT
RSC
ROSE
RN,
REV
RENDERING
REG
RCC
RATE
RAP
RADIOLOG
Quintin
Quinta
Quinn
Quijan
Qui
Quan
Quadri
Qi
Qazi
QWEEK
QUI
QTY:60
QTY:3
QTY:10
Q8
Q3
Pum
Pulses:
Pulmicort
Pul
Proventil
Protonix,
Pros
Prophylaxis
Promptcare
Prom
Progress
Probable
Proba
Prince
Preventi
Presently
Pregabalin
Predniso
Prec
Practitioner
Practice
Pott
Posterior
Polyp
Point
Poi
Plymouth,
Pleura:
Pletal
Plaque
Picture
Phone:
Phi
PhD
Perhaps
Percussion-
Percu
Pept
Penn
Pecos
Paz
Patter
Paternal
Patch
Pata
Parti
Part
Paraplegia
Panel
Pam
PUD,
PTs
PT:
PSYCH
PRU
PROTE
PROPHY
PROC
PRN:
POTASSIUM
POSITIVE
PO2
PNGT
PMHx/PSHx:
PIP
PASTE'
PAR
PACs
Other:
Otero
Ot
Orl
Ori
Oregon
Order
Optimal
Opth
Ophthalmology
Only
Once
Oli
Olanzapine
Och
Obtain
Obsessive
Oakley,
Oakley
OXYCODONE
OTC
OLIVI
OL
OI
OH
OCHILTREE
O2sat
O2,
O2),
O&
Nutrition:
Nut
Ntg
NovoLog
Norvasc,
Norma
Nonspecific
Nobles
Night
Niferex
Nicole
Nia
Newberry
Neck:The
Natchaug
Nata
Nas
Names
Nai
NTND
NPO,
NPH,
NON
NITRO
NIFEDIPINE
NH
NGT
Mya
Must
Muc
Mount
Morris
Morbidly
Mont
Monofil
Mond
Moist
Mix
Missi
Miralax
Mira
Min
Microc
Mic
Mia
Meth
Metamucil
Mestinon
Merc
Memory:
Mechanic
Mccullough
Max
Massachusetts
Marke
Mag
MWF
MUS
MULTI
MT
MSN,
MRN#
MONONIT
MID
MICU
MG/ACETAMINOPHEN
MG/325
MG/
MER
MC
M&
Lymphapress
Longstanding
Lon
Lock
Lit
Lisinopril,
Linda
Lidocaine
Levophed
Levo
Levine
Levi
Lesc
Leon
Legs
Lang
Land
Lan
Lamo
Lactate
Labe
LT/
LORA
LMP
LMH
LLE,
LL
LG
LFT's
LEVE
LES
LENIs
LENIS
LABS:
L5/S1
L5
Kn
King
Kimb
Kim
Kid
Keys
Ket
Kelly
Keel
Kane,
KUB
KINASE
K-D
K-
Jr.,
Jor
Joint
Jenn
Jacobs
JUDGMENT
JU
JOIN
JC
Iyer
Iva
Issues
Iss
Irregularly
Irin
Ione
Intensi
Integr
Instruct
Infectious
Increa
Incon
Impression/Plan
Impr
Illness
Iles
Il
IX,
IVF,
IVDU
IVCD
IVC,
IOR
IO
INFORMATION
INC
IMP:
IMI,
IMA
II:
ICS,
I.
Hytrin,
Hypoglycemia
Hyperlipidemia,
Hydroco
Hydrea
Hunt
Horn,
Horn
Hope
Hooper
Hood
Hills
HgB
HgA1c
Henry
Hendricks
Hemorrhoid
Hemodynamics
Hemo
Heme:
Hematocrit
Hel
Heent:
Head/Eyes:The
HbsA
Hay
Having
Harlan
Hand
Ham
Habit
HYPERTENSION
HUNT
HUMULIN
HPI;
HLP,
HLA
HELEN
HEIGHT
HEEN&T:
HEAD
HCl
HCP:
Gua
Gregory,
Greenfield
Grant
Gran
Gord
Goldberg,
Gold
Goins
Godwin
God
Glyn
Glyco
Glucovance
Glenn
Gipson
Gibbons,
Genitourinary:
Genitourinary
Genit
Generalized
General:Patient
Gastroenterology
Gastric
Garne
Garden
Gar
Galvan
Gal
GU-
GRE
GLUCO
GIL
GI/Abdominal:
GEN&#8217;L
GCAST
GBS
GASTR
GAB
G6
Functional
Function
Frontal
Freddie
Frantz,
Franklin
Fortunately
Fores
Follows
Fluid
Flovent
Flor
Flagyl
Fingerstick
Finger-
Finasteride
Fil
Ferritin
Ferreira
Fer
Femorals
Fat
Family:
Fall
Factor
Face
FRA
FINDINGS
FF
FEV1/FVC
F/E/N
Eyes-
Eyes
Extensive
Evidence
Event
Eval
Estrogen
Estr
Equa
Episod
Energy
Endocrine/metabolic:
Encou
Emotional
Elk
Elizabeth
Eld
Elbow
Edgar
Eas
Earl
EXTRA
EXAM
ERVIN
ERCP
ENT:
ENT/
EN
EDUCA
EDIS
EA
Dystroph
Dysp
Dx'
Dun
Dry
Drugs:
Drive,
Dra
Doxepin
Dotson,
Dotson
Dorsalis
Dom
Doctors
Dobutamine
Dispo:
Dispo
Director
Din
Dil
Diffuse
Diagnosis
Diagnosed
Det
Describes
Derma
Dent
Dennis
Deni
Den
Dementia:
Delgado,
Def
Dar
Danny
Dana
Dalmane
DSH
DRE
DP,
DOC
DNR
DN
DM-2
DIV
DISPO
DISK
DISCHARGE
DIGOXIN
DIFF
DIAG
DEX
DES
DELTA
D5W
Cyto
Cs
Crowley
Crackles
Cove
Cou
Corrine
Corona
Core
Coo
Continu
Contact
Conj
Comprehensi
Comparison
Comfortable,
Colo
Coca
Clinic;
Clear,
Clark
Claritin
Citr
Circum
Circle
Cincinnati,
Cigarettes
Christine
Cho
Cheney,
Chem-
Charles
Cereb
Cellcept
Cell
Cefazolin
Carp
Carol
Carlson
Cardura
Cap
Cameron
Calculations:
Calci
Caffeine:
Ca,
Ca)
CSSten
CRRTx
CRI-
CRFs
CREATININE
CREATINE
CREATED
COUMADIN
COU
CORONAR
COPIED
COP
CONDITION
COLON
COATED
CNIS
CNI'
CLOPIDOGREL
CLA
CHOLESTEROL
CHA
CF
CELL
CEA,
CB
CAUTION
CARR
CARDIOVASCULAR:
CARDIOLOGY
CAD/
C5
C3
C/o
C,
Bruits
Brown
Brooks
Bronchi
Broad
Bridges
Brian,
Breath
Brand
Birth
Bird,
Big
Bica
Bever
Better
Bel
Before
Bay
Baso
Basic
Barr
Bands
Ball
Bact
Baby
BUN/Creatinine,
BUN,
BRU
BREAST
BRB
BPM,
BP1
BNP,
BLE
BG's
BEN
BASO
BASED
BACK:
BAC
B/
B-block
Aztreonam
Azithrom
Axis
Axi
Avoid
Augmentin
Attention:
Atr
Ate
Ast
Asc
Army
Arm,
Arc
Aran
Apr
Appearan
Apparently
Apical
Aort
Anticoag
Anthony
Anterior
Angioseal
Angioplasty
Ang
Anesthesia
Anesthe
Anemia:
Andre
Alvarez
Alterna
AlkP
Alk
Ali
Alf
Aldactone
Alan
Aguil
Again
Affect:
Advil
Adria
Adrenal
Adjust
Adhesive
Adde
Acu
Abundant
AZITHROMYCIN
AVR,
AS,
APPEARANCE
APP
AOx3,
AORTIC
AORTA,
ALBUTEROL
AGH
AEOS-A
ACEI,
ACC
ABG
ABDOMEN
A/
?p
98.3
98.2,
98.1
96.7
96.6
942
90s,
90s
900
9/81
9/05
9.9,
9.6,
9-25
9-1
9-
8mg
88.
88,
85.
84,
81,
80.
80's
8/9
8/10
750mg
74-
7/0
7.0,
69-year-old
69%,
66,
65%
62.
62-
6000
60-70
60's
6/6
6/20
6.9,
5m
5L
5:
59-year-old
57-y
54,
537
52-year-old
5/88
5/73
5.93
5.2,
5.1,
5.1)
48.
48-year-old
45,
43.
4000
4/4
4.8,
38,
35.5
35.3
35.1
35.0
35-
340
34.7
325-650
324
320
32.5
31.3
306
304
30.9
30-3
3/7
3.7,
3.6,
3.5,
3.4,
3.1-4.3
3-vessel
2p
2c
29.9
29.3
28-
276
27.8
27.3
266
26.6
256
255
25.5
24hr
24.0-30.0
24-h
23%
228
221
2142
2137-02-27
2136
2120
21-J
21-
2094,
2089
2085,
2083,
207
2065,
2060's,
2059
205
201-25
20-4
2/78
2/67,
2/10
2/02/
2.0,
1ppd
1gm
1cm
1c
1TAB
1L
196
193
191
19-20
18:35
182
180/
17g
178/
178
162/
160mg
16.1
15m
150/70
150-1
15.8
15.6
15.0
15-20
14:2
14:
146
144/8
142/8
142,
14-
13:06
132/7
130/80,
130/70
130/7
130/60
130/6
13.7
129/
124,
122/6
121/
120mg
120/80
120/2
120/
12/18
12/13
12/09/8
12.5MG
12-lead
12-Dec-2091
11:4
118/7
114/
110/60
110-
11/77
11/7
11/29/
11/27/2152
11/27
11/26
11/24/
11/19
11/11/20
11/07/2080
11/03/20
11/02/
11.2
11.0
11)
10meq
10m
10U
108,
102,
101,
10/8
10/6
10/22
10/17/
10/10/2069
10/10/
10/05/2
10/03/2061
10-20
10-15
1/96
1/22
1/213
1/0
1/
1.7,
1.3,
1.2,
1-3
09:5
09:1
09/29/2089
09/29/
09/12/2093
08/3
08/17/20
08/02/
07:55
07/3
07/15/
07/05/93
07/04/95
07/03/
06/22/20
06/21/79
06/10/97
04/28/
04/11/
04/04/2073
03/27/2090
03/19/207
03/18/
03/09
03/06/20
02:
02/20/2
02/04/
02,
01/28/77
01/17/2097
01/11/49
01/04/
01-Aug-2076
01,
0.19
0.12
0.11
0.09
0-
/125
.l
.3
-will
-temp:
-mo
-le
-l
-i
-fo
-d
-Las
-Hy
-Ch
-ASA
-3
--in
--cont
----rec
----re
----p
----P
(wi
(whe
(unclear
(u
(tr
(tak
(start
(si
(pt
(po
(pat
(pa
(normal
(nl
(i.e.
(has
(fi
(estimate
(esp
(e.g.
(dx
(du
(blood
(below
(W
(Toprol
(TRAMADOL)
(TOCOPHEROL-DL-ALPHA)
(TA
(Se
(SVG
(SS
(SA
(ROS
(ROFECOXIB)
(PYRIDOXINE
(PR
(PC
(NITROGLYCERIN
(NI
(Mi
(METOCLOPRAMIDE
(Lipitor
(LIMA
(LI
(L)0
(K
(H)01/2
(FERROUS
(ERGOCALCIFEROL)
(ENALAPRIL
(Di
(Colace)
(CALCIUM
(CA
(BP
(BI
(As
(Ad
(AM
(ACETAMINOPHEN)
(9/
(8/
(7/
(7)
(584)
(50000
(5/
(35-4
(35
(30MG
(27
(26-174)
(24
(2.5
(2%
(12.5
(11.3-13.3)
(11.1-13.1)
(1000MG
(03
(01
(0.3
(0.0-
(0-1
(*)01/28/2081
'COPY
'90
&nbsp;no
&lt;100
&gt;5
&#
%LYMPH-M
#C
"st
"lo
"li
"he
"1
##\us
##\u\u\u\u\u\u\u\u\u\u\u\u\u\u\u
##YO
##YLO
##YLE
##YES
##YD
##YCH
##XE
##XAZ
##Wou
##We
##WI
##Vi
##VR
##VIER
##VH
##VEN
##VD
##Uro
##Urin
##UV
##UTIO
##USI
##UND
##ULT
##Table
##TT,
##TS:
##TINE
##THER
##TERE
##TED
##TD
##Sta
##Si
##Sh
##Sedation
##SU
##STU
##STAT
##SONE
##SO4
##SK
##SIT
##SHI
##S1S2
##S/
##Ra
##RVASC
##RTx
##RTAZAPINE
##RTA
##RP
##ROUGH,
##ROC
##RO-
##RIT
##RIC
##REM
##REAS
##RE-
##Qu
##QU
##PUL
##PHI
##PEZIL
##PAP
##Or
##OSIN
##ORT
##OPRO
##OPRIL
##OPRA
##ONID
##OLAC
##OIN
##NY
##NOSI
##NF
##NEU
##NES,
##NDE
##NAZEPAM
##N1
##N-
##Mi
##Mar
##Ma
##MPT
##MER
##LSON
##LS
##LMA
##LLIN
##LITAZONE)
##LIS
##LIP
##LICI
##LG
##LAS
##KELA
##KEL
##IX
##ITY
##ITRIPTYLINE
##ITIES
##ITH
##ISION
##IO,
##IFIED
##IF
##IDEN
##IAZ
##I-
##His
##Hg
##Ha
##HTN,
##HS
##HN
##HM
##HIL
##Give
##GR
##GLY
##GICAL
##Fo
##Fl
##Feb-20
##Family
##FIC
##FIBRATE
##FER
##FACLOR
##Eyes
##Exam
##Emergency
##EU
##ETIAPINE
##ETE
##ETAMINOPHEN
##ETA
##ESS
##EPRAZOLE
##ENTI
##ENC
##ENA
##EMI
##ELIA
##EG
##EF
##EDI
##EAL
##Discrete
##Dis
##Di
##De
##Date/Time
##DW
##DR
##DEN
##Contin
##Cl
##Chest
##CTO
##CTI
##CTA
##CRO
##CP
##CORBIC
##COP
##COMB,
##COL
##CINOLONE
##CINE
##CET
##CB
##CARDIAC
##C5
##Bo
##Bili
##BRA
##BC
##An
##Ad
##Abd
##AST
##ARA,
##APR
##AMO
##AM:
##AL:
##:T
##:D
##9/209
##9/2076
##9/207
##9/09
##9-1
##9):
##884
##8/7
##8-10
##7/2081
##7/208
##7-0
##7(L)
##7(H)
##60,
##6/6
##6/22/2068
##6/208
##6/206
##6-7
##5mg
##5MCG
##518
##50,
##5/3
##5/2093
##5/209
##5/208
##5/1
##41-
##4/97
##4/9
##4/78
##4/212
##4-5
##4),
##4(
##30/2
##3/5
##3/2152
##3/2092
##3/20
##25/
##25-
##2151
##211
##2100
##210
##2081
##2/209
##2/208
##1n
##132
##121
##1/94
##1/28/2081
##1/24
##1/2087
##1/0
##1(H)
##1(
##095
##080
##02/15/2080
##02/13/2081
##02/12/2081
##01/
##000,
##0/7
##0/209
##0/207
##0/1
##0-7
##0-5
##/wheezing/sore
##/sx
##/str
##/sensation
##/re
##/pe
##/pa
##/nos
##/la
##/i
##/hi
##/gr
##/cons
##/chills
##/ab
##/We
##/VF
##/Sa
##/PO
##/PND/LE
##/PE
##/ND
##/In
##/HDL
##/Ba
##/97
##/95
##/93
##/84
##/77
##/69
##/64
##/40
##/208
##.The
##.8,
##.5,
##.00
##.0-
##..
##-swi
##-sta
##-spa
##-se
##-r
##-qu
##-post
##-pa
##-negative
##-la
##-kn
##-int
##-ha
##-dec
##-de
##-controlled
##-con
##-bu
##-based
##-ba
##-aort
##-ali
##-U
##-Nov
##-Jan-
##-He
##-Ga
##-GLU
##-60
##-6.0
##-55
##-34
##-23
##-2075
##-20
##-1500
##-13.
##-13
##-12
##-11
##-1.2)
##-------
##-&gt;
##,S
##,M
##*)
##(GM)
##'s-
##'s)
##&amp;
##&#82
###2
##*
##{
##!
##’
##~
##|
##`
##^
##@
##>
##=
##<
##+
##$
##_
’
`
=
^
$
~
\
!
<
+
}
|
j
>
_
